{
  "version": "1.0",
  "truncation": null,
  "padding": null,
  "added_tokens": [
    {
      "id": 0,
      "content": "<|endoftext|>",
      "single_word": false,
      "lstrip": false,
      "rstrip": false,
      "normalized": false,
      "special": true
    },
    {
      "id": 1,
      "content": "<|im_start|>",
      "single_word": false,
      "lstrip": false,
      "rstrip": false,
      "normalized": false,
      "special": true
    },
    {
      "id": 2,
      "content": "<|im_end|>",
      "single_word": false,
      "lstrip": false,
      "rstrip": false,
      "normalized": false,
      "special": true
    },
    {
      "id": 3,
      "content": "<|object_ref_start|>",
      "single_word": false,
      "lstrip": false,
      "rstrip": false,
      "normalized": false,
      "special": true
    },
    {
      "id": 4,
      "content": "<|object_ref_end|>",
      "single_word": false,
      "lstrip": false,
      "rstrip": false,
      "normalized": false,
      "special": true
    },
    {
      "id": 5,
      "content": "<|box_start|>",
      "single_word": false,
      "lstrip": false,
      "rstrip": false,
      "normalized": false,
      "special": true
    },
    {
      "id": 6,
      "content": "<|box_end|>",
      "single_word": false,
      "lstrip": false,
      "rstrip": false,
      "normalized": false,
      "special": true
    },
    {
      "id": 7,
      "content": "<|quad_start|>",
      "single_word": false,
      "lstrip": false,
      "rstrip": false,
      "normalized": false,
      "special": true
    },
    {
      "id": 8,
      "content": "<|quad_end|>",
      "single_word": false,
      "lstrip": false,
      "rstrip": false,
      "normalized": false,
      "special": true
    },
    {
      "id": 9,
      "content": "<|vision_start|>",
      "single_word": false,
      "lstrip": false,
      "rstrip": false,
      "normalized": false,
      "special": true
    },
    {
      "id": 10,
      "content": "<|vision_end|>",
      "single_word": false,
      "lstrip": false,
      "rstrip": false,
      "normalized": false,
      "special": true
    },
    {
      "id": 11,
      "content": "<|vision_pad|>",
      "single_word": false,
      "lstrip": false,
      "rstrip": false,
      "normalized": false,
      "special": true
    },
    {
      "id": 12,
      "content": "<|image_pad|>",
      "single_word": false,
      "lstrip": false,
      "rstrip": false,
      "normalized": false,
      "special": true
    },
    {
      "id": 13,
      "content": "<|video_pad|>",
      "single_word": false,
      "lstrip": false,
      "rstrip": false,
      "normalized": false,
      "special": true
    },
    {
      "id": 14,
      "content": "<|audio_start|>",
      "single_word": false,
      "lstrip": false,
      "rstrip": false,
      "normalized": false,
      "special": true
    },
    {
      "id": 15,
      "content": "<|audio_end|>",
      "single_word": false,
      "lstrip": false,
      "rstrip": false,
      "normalized": false,
      "special": true
    },
    {
      "id": 16,
      "content": "<|audio_pad|>",
      "single_word": false,
      "lstrip": false,
      "rstrip": false,
      "normalized": false,
      "special": true
    },
    {
      "id": 17,
      "content": "<tts_pad>",
      "single_word": false,
      "lstrip": false,
      "rstrip": false,
      "normalized": false,
      "special": true
    },
    {
      "id": 18,
      "content": "<tts_text_bos>",
      "single_word": false,
      "lstrip": false,
      "rstrip": false,
      "normalized": false,
      "special": true
    },
    {
      "id": 19,
      "content": "<tts_text_eod>",
      "single_word": false,
      "lstrip": false,
      "rstrip": false,
      "normalized": false,
      "special": true
    },
    {
      "id": 20,
      "content": "<tts_text_bos_single>",
      "single_word": false,
      "lstrip": false,
      "rstrip": false,
      "normalized": false,
      "special": true
    },
    {
      "id": 21,
      "content": "<tool_call>",
      "single_word": false,
      "lstrip": false,
      "rstrip": false,
      "normalized": false,
      "special": false
    },
    {
      "id": 22,
      "content": "</tool_call>",
      "single_word": false,
      "lstrip": false,
      "rstrip": false,
      "normalized": false,
      "special": false
    },
    {
      "id": 23,
      "content": "<tool_response>",
      "single_word": false,
      "lstrip": false,
      "rstrip": false,
      "normalized": false,
      "special": false
    },
    {
      "id": 24,
      "content": "</tool_response>",
      "single_word": false,
      "lstrip": false,
      "rstrip": false,
      "normalized": false,
      "special": false
    },
    {
      "id": 25,
      "content": "<think>",
      "single_word": false,
      "lstrip": false,
      "rstrip": false,
      "normalized": false,
      "special": false
    },
    {
      "id": 26,
      "content": "</think>",
      "single_word": false,
      "lstrip": false,
      "rstrip": false,
      "normalized": false,
      "special": false
    },
    {
      "id": 27,
      "content": "<|buffer1|>",
      "single_word": false,
      "lstrip": false,
      "rstrip": false,
      "normalized": false,
      "special": false
    },
    {
      "id": 28,
      "content": "<|buffer2|>",
      "single_word": false,
      "lstrip": false,
      "rstrip": false,
      "normalized": false,
      "special": false
    },
    {
      "id": 29,
      "content": "<|buffer3|>",
      "single_word": false,
      "lstrip": false,
      "rstrip": false,
      "normalized": false,
      "special": false
    },
    {
      "id": 30,
      "content": "<|buffer4|>",
      "single_word": false,
      "lstrip": false,
      "rstrip": false,
      "normalized": false,
      "special": false
    },
    {
      "id": 31,
      "content": "<|buffer5|>",
      "single_word": false,
      "lstrip": false,
      "rstrip": false,
      "normalized": false,
      "special": false
    },
    {
      "id": 32,
      "content": "<|buffer6|>",
      "single_word": false,
      "lstrip": false,
      "rstrip": false,
      "normalized": false,
      "special": false
    },
    {
      "id": 33,
      "content": "<|buffer7|>",
      "single_word": false,
      "lstrip": false,
      "rstrip": false,
      "normalized": false,
      "special": false
    },
    {
      "id": 34,
      "content": "<|buffer8|>",
      "single_word": false,
      "lstrip": false,
      "rstrip": false,
      "normalized": false,
      "special": false
    },
    {
      "id": 35,
      "content": "<|buffer9|>",
      "single_word": false,
      "lstrip": false,
      "rstrip": false,
      "normalized": false,
      "special": false
    }
  ],
  "normalizer": null,
  "pre_tokenizer": {
    "type": "ByteLevel",
    "add_prefix_space": false,
    "trim_offsets": true,
    "use_regex": true
  },
  "post_processor": null,
  "decoder": {
    "type": "ByteLevel",
    "add_prefix_space": true,
    "trim_offsets": true,
    "use_regex": true
  },
  "model": {
    "type": "BPE",
    "dropout": null,
    "unk_token": null,
    "continuing_subword_prefix": null,
    "end_of_word_suffix": null,
    "fuse_unk": false,
    "byte_fallback": false,
    "ignore_merges": false,
    "vocab": {
      "<|endoftext|>": 0,
      "<|im_start|>": 1,
      "<|im_end|>": 2,
      "<|object_ref_start|>": 3,
      "<|object_ref_end|>": 4,
      "<|box_start|>": 5,
      "<|box_end|>": 6,
      "<|quad_start|>": 7,
      "<|quad_end|>": 8,
      "<|vision_start|>": 9,
      "<|vision_end|>": 10,
      "<|vision_pad|>": 11,
      "<|image_pad|>": 12,
      "<|video_pad|>": 13,
      "<|audio_start|>": 14,
      "<|audio_end|>": 15,
      "<|audio_pad|>": 16,
      "<tts_pad>": 17,
      "<tts_text_bos>": 18,
      "<tts_text_eod>": 19,
      "<tts_text_bos_single>": 20,
      "<tool_call>": 21,
      "</tool_call>": 22,
      "<tool_response>": 23,
      "</tool_response>": 24,
      "<think>": 25,
      "</think>": 26,
      "<|buffer1|>": 27,
      "<|buffer2|>": 28,
      "<|buffer3|>": 29,
      "<|buffer4|>": 30,
      "<|buffer5|>": 31,
      "<|buffer6|>": 32,
      "<|buffer7|>": 33,
      "<|buffer8|>": 34,
      "<|buffer9|>": 35,
      "!": 36,
      "\"": 37,
      "#": 38,
      "$": 39,
      "%": 40,
      "&": 41,
      "'": 42,
      "(": 43,
      ")": 44,
      "*": 45,
      "+": 46,
      ",": 47,
      "-": 48,
      ".": 49,
      "/": 50,
      "0": 51,
      "1": 52,
      "2": 53,
      "3": 54,
      "4": 55,
      "5": 56,
      "6": 57,
      "7": 58,
      "8": 59,
      "9": 60,
      ":": 61,
      ";": 62,
      "<": 63,
      "=": 64,
      ">": 65,
      "?": 66,
      "@": 67,
      "A": 68,
      "B": 69,
      "C": 70,
      "D": 71,
      "E": 72,
      "F": 73,
      "G": 74,
      "H": 75,
      "I": 76,
      "J": 77,
      "K": 78,
      "L": 79,
      "M": 80,
      "N": 81,
      "O": 82,
      "P": 83,
      "Q": 84,
      "R": 85,
      "S": 86,
      "T": 87,
      "U": 88,
      "V": 89,
      "W": 90,
      "X": 91,
      "Y": 92,
      "Z": 93,
      "[": 94,
      "\\": 95,
      "]": 96,
      "^": 97,
      "_": 98,
      "`": 99,
      "a": 100,
      "b": 101,
      "c": 102,
      "d": 103,
      "e": 104,
      "f": 105,
      "g": 106,
      "h": 107,
      "i": 108,
      "j": 109,
      "k": 110,
      "l": 111,
      "m": 112,
      "n": 113,
      "o": 114,
      "p": 115,
      "q": 116,
      "r": 117,
      "s": 118,
      "t": 119,
      "u": 120,
      "v": 121,
      "w": 122,
      "x": 123,
      "y": 124,
      "z": 125,
      "{": 126,
      "|": 127,
      "}": 128,
      "~": 129,
      "¡": 130,
      "¢": 131,
      "£": 132,
      "¤": 133,
      "¥": 134,
      "¦": 135,
      "§": 136,
      "¨": 137,
      "©": 138,
      "ª": 139,
      "«": 140,
      "¬": 141,
      "®": 142,
      "¯": 143,
      "°": 144,
      "±": 145,
      "²": 146,
      "³": 147,
      "´": 148,
      "µ": 149,
      "¶": 150,
      "·": 151,
      "¸": 152,
      "¹": 153,
      "º": 154,
      "»": 155,
      "¼": 156,
      "½": 157,
      "¾": 158,
      "¿": 159,
      "À": 160,
      "Á": 161,
      "Â": 162,
      "Ã": 163,
      "Ä": 164,
      "Å": 165,
      "Æ": 166,
      "Ç": 167,
      "È": 168,
      "É": 169,
      "Ê": 170,
      "Ë": 171,
      "Ì": 172,
      "Í": 173,
      "Î": 174,
      "Ï": 175,
      "Ð": 176,
      "Ñ": 177,
      "Ò": 178,
      "Ó": 179,
      "Ô": 180,
      "Õ": 181,
      "Ö": 182,
      "×": 183,
      "Ø": 184,
      "Ù": 185,
      "Ú": 186,
      "Û": 187,
      "Ü": 188,
      "Ý": 189,
      "Þ": 190,
      "ß": 191,
      "à": 192,
      "á": 193,
      "â": 194,
      "ã": 195,
      "ä": 196,
      "å": 197,
      "æ": 198,
      "ç": 199,
      "è": 200,
      "é": 201,
      "ê": 202,
      "ë": 203,
      "ì": 204,
      "í": 205,
      "î": 206,
      "ï": 207,
      "ð": 208,
      "ñ": 209,
      "ò": 210,
      "ó": 211,
      "ô": 212,
      "õ": 213,
      "ö": 214,
      "÷": 215,
      "ø": 216,
      "ù": 217,
      "ú": 218,
      "û": 219,
      "ü": 220,
      "ý": 221,
      "þ": 222,
      "ÿ": 223,
      "Ā": 224,
      "ā": 225,
      "Ă": 226,
      "ă": 227,
      "Ą": 228,
      "ą": 229,
      "Ć": 230,
      "ć": 231,
      "Ĉ": 232,
      "ĉ": 233,
      "Ċ": 234,
      "ċ": 235,
      "Č": 236,
      "č": 237,
      "Ď": 238,
      "ď": 239,
      "Đ": 240,
      "đ": 241,
      "Ē": 242,
      "ē": 243,
      "Ĕ": 244,
      "ĕ": 245,
      "Ė": 246,
      "ė": 247,
      "Ę": 248,
      "ę": 249,
      "Ě": 250,
      "ě": 251,
      "Ĝ": 252,
      "ĝ": 253,
      "Ğ": 254,
      "ğ": 255,
      "Ġ": 256,
      "ġ": 257,
      "Ģ": 258,
      "ģ": 259,
      "Ĥ": 260,
      "ĥ": 261,
      "Ħ": 262,
      "ħ": 263,
      "Ĩ": 264,
      "ĩ": 265,
      "Ī": 266,
      "ī": 267,
      "Ĭ": 268,
      "ĭ": 269,
      "Į": 270,
      "į": 271,
      "İ": 272,
      "ı": 273,
      "Ĳ": 274,
      "ĳ": 275,
      "Ĵ": 276,
      "ĵ": 277,
      "Ķ": 278,
      "ķ": 279,
      "ĸ": 280,
      "Ĺ": 281,
      "ĺ": 282,
      "Ļ": 283,
      "ļ": 284,
      "Ľ": 285,
      "ľ": 286,
      "Ŀ": 287,
      "ŀ": 288,
      "Ł": 289,
      "ł": 290,
      "Ń": 291,
      "ï¼": 292,
      "ä¸": 293,
      "çļ": 294,
      "çļĦ": 295,
      "ï¼Į": 296,
      "ãĢ": 297,
      "ãĢĤ": 298,
      "ä»": 299,
      "äº": 300,
      "åı": 301,
      "æľ": 302,
      "æĪ": 303,
      "ä½": 304,
      "è¿": 305,
      "åħ": 306,
      "åĴ": 307,
      "åĴĮ": 308,
      "åĪ": 309,
      "çĶ": 310,
      "å¤": 311,
      "æĺ": 312,
      "å®": 313,
      "åľ": 314,
      "ä¸Ģ": 315,
      "åĬ": 316,
      "è¯": 317,
      "åĲ": 318,
      "æĸ": 319,
      "ä»¥": 320,
      "ä¹": 321,
      "æĺ¯": 322,
      "ç»": 323,
      "å°": 324,
      "ï¼ļ": 325,
      "åŃ": 326,
      "ãĢģ": 327,
      "è®": 328,
      "åı¯": 329,
      "ĥ½": 330,
      "ä¸ª": 331,
      "æĪĳ": 332,
      "åľ¨": 333,
      "åº": 334,
      "æķ": 335,
      "éĢ": 336,
      "äºº": 337,
      "èĥ½": 338,
      "å¸": 339,
      "æĿ": 340,
      "æĹ": 341,
      "ä¼": 342,
      "éĩ": 343,
      "æľī": 344,
      "å¹": 345,
      "è¡": 346,
      "åĮ": 347,
      "å·": 348,
      "åĽ": 349,
      "çĶ¨": 350,
      "åı¯ä»¥": 351,
      "è¿Ļ": 352,
      "è§": 353,
      "ä¸Ń": 354,
      "å¯": 355,
      "è¦": 356,
      "åĩ": 357,
      "è¦ģ": 358,
      "ä»¬": 359,
      "äºĨ": 360,
      "çļĦæ": 361,
      "ä¸º": 362,
      "çİ": 363,
      "åĨ": 364,
      "çŃ": 365,
      "é¢": 366,
      "å¼": 367,
      "çī": 368,
      "å¥": 369,
      "ç§": 370,
      "éĹ": 371,
      "å¾": 372,
      "æĢ": 373,
      "ä¿": 374,
      "èĢ": 375,
      "çĶŁ": 376,
      "ä¸į": 377,
      "æĬ": 378,
      "æŀ": 379,
      "å¦": 380,
      "æī": 381,
      "æ³": 382,
      "å½": 383,
      "å¦Ĥ": 384,
      "çĽ": 385,
      "æĿ¥": 386,
      "æŃ": 387,
      "éĿ": 388,
      "èĩ": 389,
      "æı": 390,
      "åį": 391,
      "çĲ": 392,
      "æł": 393,
      "Ġt": 394,
      "ä¾": 395,
      "åĵ": 396,
      "æĽ": 397,
      "ä½ł": 398,
      "æĦ": 399,
      "åŃ¦": 400,
      "æĪĲ": 401,
      "æĹ¶": 402,
      "æķ°": 403,
      "çŃī": 404,
      "äºĽ": 405,
      "è¡Į": 406,
      "in": 407,
      "æĸĩ": 408,
      "æĸ¹": 409,
      "æĻ": 410,
      "ä¸ĭ": 411,
      "å¯¹": 412,
      "ä¸Ģä¸ª": 413,
      "éľ": 414,
      "äºİ": 415,
      "å¥½": 416,
      "æĥ": 417,
      "åĪ°": 418,
      "æİ": 419,
      "åĳ": 420,
      "åľ°": 421,
      "ä¼ļ": 422,
      "æĽ´": 423,
      "æıĲ": 424,
      "æĭ": 425,
      "è´": 426,
      "æĤ": 427,
      "Ġa": 428,
      "æ°": 429,
      "å·¥": 430,
      "æĶ": 431,
      "å¿": 432,
      "éľĢ": 433,
      "âĢ": 434,
      "he": 435,
      "åĪĨ": 436,
      "èĩª": 437,
      "ä½ľ": 438,
      "æį": 439,
      "ä»ĸ": 440,
      "æĪĳä»¬": 441,
      "æµ": 442,
      "æĮ": 443,
      "åİ": 444,
      "èµ": 445,
      "å¤ļ": 446,
      "åĩº": 447,
      "ç®": 448,
      "çĲĨ": 449,
      "ï¼Ł": 450,
      "å±": 451,
      "åĬ¨": 452,
      "æ¯": 453,
      "ä¸Ĭ": 454,
      "é¢ĺ": 455,
      "åıĳ": 456,
      "åĮĸ": 457,
      "æĤ¨": 458,
      "çī©": 459,
      "å¤§": 460,
      "è¿ĩ": 461,
      "ä¿Ŀ": 462,
      "on": 463,
      "åºĶ": 464,
      "è¾": 465,
      "éľĢè¦ģ": 466,
      "å¹¶": 467,
      "æ³ķ": 468,
      "çļĦç": 469,
      "re": 470,
      "é£": 471,
      "è¿Ľ": 472,
      "å°ı": 473,
      "åŁ": 474,
      "éĢļ": 475,
      "éĿ¢": 476,
      "æŀľ": 477,
      "ç±": 478,
      "å®ļ": 479,
      "å°Ĩ": 480,
      "ç§į": 481,
      "æį®": 482,
      "åĬĽ": 483,
      "æĪĸ": 484,
      "æĢ§": 485,
      "åħ³": 486,
      "åĬł": 487,
      "é«": 488,
      "ä½¿": 489,
      "éĻ": 490,
      "ä½ĵ": 491,
      "éĹ®": 492,
      "åĲĮ": 493,
      "çº": 494,
      "é«ĺ": 495,
      "er": 496,
      "çİ°": 497,
      "æ´": 498,
      "è§£": 499,
      "æĬĢ": 500,
      "èī": 501,
      "åŃĲ": 502,
      "ç«": 503,
      "åħ¶": 504,
      "å¸¸": 505,
      "åģ": 506,
      "æľĢ": 507,
      "éģ": 508,
      "å®ĥ": 509,
      "æ¸": 510,
      "æľº": 511,
      "çĦ": 512,
      "ç¨": 513,
      "æ±": 514,
      "æĻº": 515,
      "è½": 516,
      "åº¦": 517,
      "éĩı": 518,
      "æľ¯": 519,
      "éĩį": 520,
      "æ²": 521,
      "ä¹Ł": 522,
      "æ¬": 523,
      "åĵģ": 524,
      "ç±»": 525,
      "Ġthe": 526,
      "åĬ©": 527,
      "çĦ¶": 528,
      "æĻºèĥ½": 529,
      "åĽł": 530,
      "ç³": 531,
      "è¶": 532,
      "éĹ´": 533,
      "ç¡": 534,
      "å®¶": 535,
      "ä¹ĭ": 536,
      "éĺ": 537,
      "æĦŁ": 538,
      "ĠĠ": 539,
      "Ġs": 540,
      "è°": 541,
      "è¡¨": 542,
      "çĤ": 543,
      "ä¹ł": 544,
      "at": 545,
      "æĸ°": 546,
      "åĲĪ": 547,
      "å»": 548,
      "éĹ®é¢ĺ": 549,
      "å¢": 550,
      "ä½¿çĶ¨": 551,
      "è®¡": 552,
      "èĢĮ": 553,
      "æľ¬": 554,
      "ä¸ļ": 555,
      "å¾Ĺ": 556,
      "ç¨ĭ": 557,
      "en": 558,
      "è¯Ń": 559,
      "ä¸ĢäºĽ": 560,
      "ç¤": 561,
      "is": 562,
      "å¸®": 563,
      "å¤©": 564,
      "åĢ": 565,
      "èĤ": 566,
      "æĺİ": 567,
      "or": 568,
      "å»º": 569,
      "ç»ı": 570,
      "å®ŀ": 571,
      "çľ": 572,
      "ç¡®": 573,
      "æĥħ": 574,
      "an": 575,
      "å½±": 576,
      "ä¾Ľ": 577,
      "es": 578,
      "æĦı": 579,
      "å¼ı": 580,
      "éĶ": 581,
      "çĿ": 582,
      "åħ¬": 583,
      "åī": 584,
      "åĪ¶": 585,
      "æģ": 586,
      "èĬ": 587,
      "ä¿¡": 588,
      "ä¹Ī": 589,
      "èĢħ": 590,
      "ç»Ļ": 591,
      "Ġc": 592,
      "çİ¯": 593,
      "æŃ¤": 594,
      "èī²": 595,
      "çŁ": 596,
      "æıĲä¾Ľ": 597,
      "æĬĢæľ¯": 598,
      "åħ¥": 599,
      "ç´": 600,
      "å±ķ": 601,
      "ä»¥ä¸ĭ": 602,
      "å¸®åĬ©": 603,
      "çĸ": 604,
      "åŃ¦ä¹ł": 605,
      "ä¸İ": 606,
      "ä¾ĭ": 607,
      "éļ": 608,
      "åħ·": 609,
      "äººå·¥": 610,
      "ä¸»": 611,
      "è¿Ľè¡Į": 612,
      "âĢĿ": 613,
      "åĬ¡": 614,
      "âĢľ": 615,
      "al": 616,
      "åĲİ": 617,
      "å¿ĥ": 618,
      "åı¯èĥ½": 619,
      "çĽ¸": 620,
      "æŁ": 621,
      "çĶµ": 622,
      "ç¾": 623,
      "æĮģ": 624,
      "ç³»": 625,
      "äººå·¥æĻºèĥ½": 626,
      "æķ°æį®": 627,
      "äº§": 628,
      "æīĢ": 629,
      "ç®Ĺ": 630,
      "è¯·": 631,
      "æ´»": 632,
      "å½ĵ": 633,
      "ç½": 634,
      "å¹´": 635,
      "Ġ=": 636,
      "å¾Ī": 637,
      "ç©": 638,
      "é¡": 639,
      "çĿĢ": 640,
      "çĤ¹": 641,
      "ä½Ĩ": 642,
      "åĮħ": 643,
      "é¦": 644,
      "çī¹": 645,
      "it": 646,
      "åħ¨": 647,
      "è¿ĺ": 648,
      "è¿Ļä¸ª": 649,
      "å¼Ģ": 650,
      "ä»İ": 651,
      "è¯¥": 652,
      "**": 653,
      "éĥ½": 654,
      "åĲį": 655,
      "åĻ": 656,
      "æĥ³": 657,
      "Ġp": 658,
      "ä»£": 659,
      "åŀ": 660,
      "æ·": 661,
      "è®©": 662,
      "çķ": 663,
      "åĽ½": 664,
      "éĢļè¿ĩ": 665,
      "æ°Ķ": 666,
      "é£Ł": 667,
      "åĻ¨": 668,
      "æ°´": 669,
      "ou": 670,
      "éĤ": 671,
      "çĽ®": 672,
      "éĢĤ": 673,
      "åıĺ": 674,
      "Ġf": 675,
      "ing": 676,
      "å¥½çļĦ": 677,
      "éĿŀ": 678,
      "éķ": 679,
      "åĸ": 680,
      "èģ": 681,
      "äºĭ": 682,
      "æģ¯": 683,
      "Ġw": 684,
      "è¿ĻäºĽ": 685,
      "å·±": 686,
      "le": 687,
      "åĨħ": 688,
      "èĩªå·±": 689,
      "åŃĹ": 690,
      "åĿ": 691,
      "éħ": 692,
      "è·": 693,
      "Ġb": 694,
      "éĢī": 695,
      "ç¬": 696,
      "äº¤": 697,
      "ä½ķ": 698,
      "åıĸ": 699,
      "éª": 700,
      "ar": 701,
      "æ¯Ķ": 702,
      "æĺ¯ä¸Ģ": 703,
      "æĪ·": 704,
      "ç¾İ": 705,
      "çĥ": 706,
      "å¦Ĥæŀľ": 707,
      "å¹³": 708,
      "æķĪ": 709,
      "ä»»": 710,
      "00": 711,
      "çł": 712,
      "å¤ĸ": 713,
      "Ġo": 714,
      "è¢": 715,
      "Ġ1": 716,
      "çĲĥ": 717,
      "éĽ": 718,
      "è´¨": 719,
      "å¸Ĥ": 720,
      "Ġ\\": 721,
      "ç¼": 722,
      "åĮ»": 723,
      "è®¾": 724,
      "æ¯ı": 725,
      "æ±Ĥ": 726,
      "å°ĳ": 727,
      "åľº": 728,
      "ä¾ĭå¦Ĥ": 729,
      "èĻ": 730,
      "æ¡": 731,
      "éķ¿": 732,
      "éĥ": 733,
      "ç«ł": 734,
      "éŁ": 735,
      "ï¼ī": 736,
      "æŃ£": 737,
      "åĨĻ": 738,
      "éģĵ": 739,
      "èº": 740,
      "æł¹": 741,
      "åıĹ": 742,
      "åĪĽ": 743,
      "ç»ĵ": 744,
      "éĩĮ": 745,
      "èµ·": 746,
      "ä»ĸä»¬": 747,
      "ion": 748,
      "è¯´": 749,
      "å¤Ħ": 750,
      "åºĶçĶ¨": 751,
      "æĹ¥": 752,
      "Ġd": 753,
      "åŀĭ": 754,
      "éĿŀå¸¸": 755,
      "Ġm": 756,
      "ç»Ł": 757,
      "æĸĩç«ł": 758,
      "åıĬ": 759,
      "åĨ³": 760,
      "èĲ": 761,
      "åıĳå±ķ": 762,
      "åĪ©": 763,
      "èº«": 764,
      "ï¼Ī": 765,
      "å¢ĥ": 766,
      "è®®": 767,
      "èį": 768,
      "åīį": 769,
      "ic": 770,
      "æ³¨": 771,
      "é¢Ĩ": 772,
      "åģ¥": 773,
      "é£İ": 774,
      "ä½į": 775,
      "æ®": 776,
      "ä»Ģ": 777,
      "æº": 778,
      "æĹ¶éĹ´": 779,
      "éĩįè¦ģ": 780,
      "åĵį": 781,
      "éĤ£": 782,
      "è¨": 783,
      "ç§ĳ": 784,
      "åķ": 785,
      "æĭ¬": 786,
      "ä¿¡æģ¯": 787,
      "è¯į": 788,
      "å¤Ł": 789,
      "ä¸įåĲĮ": 790,
      "è¢«": 791,
      "Ġan": 792,
      "éĥ¨": 793,
      "ä»Ģä¹Ī": 794,
      "è¯Ĩ": 795,
      "åĪ«": 796,
      "æıĲé«ĺ": 797,
      "Ġin": 798,
      "éŁ³": 799,
      "åŁŁ": 800,
      "èĭ": 801,
      "ä»¶": 802,
      "å®ī": 803,
      "æľŁ": 804,
      "èµĦ": 805,
      "æł¹æį®": 806,
      "åı¥": 807,
      "ç¤¾": 808,
      "åĮħæĭ¬": 809,
      "æ¶": 810,
      "åĽŀ": 811,
      "æłĩ": 812,
      "å½±åĵį": 813,
      "å§": 814,
      "æĢ»": 815,
      "ed": 816,
      "æīĭ": 817,
      "é¥": 818,
      "çĭ": 819,
      "Ġof": 820,
      "çľĭ": 821,
      "å®¹": 822,
      "åı¸": 823,
      "æĹł": 824,
      "æĭ©": 825,
      "æ¨": 826,
      "Ġto": 827,
      "æ»": 828,
      "éĢīæĭ©": 829,
      "çŁ¥": 830,
      "çĸĹ": 831,
      "å·¥ä½ľ": 832,
      "æľį": 833,
      "è¯Ŀ": 834,
      "çİ¯å¢ĥ": 835,
      "æĶ¾": 836,
      "æľª": 837,
      "åįķ": 838,
      "æºĲ": 839,
      "è¨Ģ": 840,
      "om": 841,
      "Ġ2": 842,
      "åİ»": 843,
      "ç¯": 844,
      "çĪ": 845,
      "ä¹Ĳ": 846,
      "åĩı": 847,
      "æĬ¤": 848,
      "å¼º": 849,
      "æ®µ": 850,
      "è¿°": 851,
      "æµģ": 852,
      "æĸŃ": 853,
      "``": 854,
      "æł·": 855,
      "é¢ĨåŁŁ": 856,
      "å®¢": 857,
      "çĹ": 858,
      "åŁº": 859,
      "åĳĺ": 860,
      "åħ¬åı¸": 861,
      "æł¼": 862,
      "èĢĥ": 863,
      "æķĻ": 864,
      "æŃ¥": 865,
      "Ġn": 866,
      "èĬĤ": 867,
      "èĥ½å¤Ł": 868,
      "AI": 869,
      "ä¸ŃçļĦ": 870,
      "å»ºè®®": 871,
      "èĪ": 872,
      "å½¢": 873,
      "å¯¼": 874,
      "å¦Ĥä½ķ": 875,
      "çĶŁæĪĲ": 876,
      "äººç±»": 877,
      "st": 878,
      "ac": 879,
      "ç¥": 880,
      "åº·": 881,
      "æİ¨": 882,
      "æ¸¸": 883,
      "å°±": 884,
      "è°ĥ": 885,
      "çģ": 886,
      "æ·±": 887,
      "ä¸¤": 888,
      "--": 889,
      "çĶŁæ´»": 890,
      "ç®¡": 891,
      "è®¡ç®Ĺ": 892,
      "æĸ¹å¼ı": 893,
      "è®¤": 894,
      "ç´ł": 895,
      "åĪĹ": 896,
      "æ¨¡": 897,
      "åĽłæŃ¤": 898,
      "ä¼ł": 899,
      "åħĥ": 900,
      "åģ¥åº·": 901,
      "è±": 902,
      "æĸĻ": 903,
      "æ¡Ī": 904,
      "æĸĩæľ¬": 905,
      "æĸ¹æ³ķ": 906,
      "ç»Ħ": 907,
      "çİĩ": 908,
      "èĥ": 909,
      "åĩĨ": 910,
      "ç¯ĩ": 911,
      "å£": 912,
      "å®ĥä»¬": 913,
      "æŀĲ": 914,
      "åĢ¼": 915,
      "è¯ķ": 916,
      "åºĶè¯¥": 917,
      "æĽ´åĬł": 918,
      "æµĭ": 919,
      "æĸ¹éĿ¢": 920,
      "Ġis": 921,
      "ç²": 922,
      "éªĮ": 923,
      "æ¬¡": 924,
      "ä¼ĺ": 925,
      "åħ¶ä»ĸ": 926,
      "æľºåĻ¨": 927,
      "åĪĨæŀĲ": 928,
      "è¿Ĳ": 929,
      "è§Ĥ": 930,
      "é»": 931,
      "çĻ": 932,
      "éĢł": 933,
      "çŃĶ": 934,
      "æī¾": 935,
      "åºı": 936,
      "åĲĹ": 937,
      "Ġ|": 938,
      "åĲĮæĹ¶": 939,
      "èı": 940,
      "åħ³äºİ": 941,
      "é¢Ħ": 942,
      "æĮĩ": 943,
      "åĲĳ": 944,
      "éĴ": 945,
      "åıª": 946,
      "åģļ": 947,
      "åĲĦ": 948,
      "ç¤º": 949,
      "è§Ĩ": 950,
      "ä»·": 951,
      "æĶ¹": 952,
      "æ¬¢": 953,
      "èĦ": 954,
      "åħĪ": 955,
      "å¢ŀ": 956,
      "as": 957,
      "æķ´": 958,
      "um": 959,
      "é¦ĸ": 960,
      "æľªæĿ¥": 961,
      "å¤ĦçĲĨ": 962,
      "åĸľ": 963,
      "èĩªçĦ¶": 964,
      "çĶ±": 965,
      "å®Į": 966,
      "ent": 967,
      "è¾¾": 968,
      "å¤ĩ": 969,
      "é©": 970,
      "Ġand": 971,
      "è®º": 972,
      "æĻ¯": 973,
      "æĺ¯ä¸Ģä¸ª": 974,
      "éĩĳ": 975,
      "æ²¡": 976,
      "å¸¦": 977,
      "åİĨ": 978,
      "ä¸ī": 979,
      "è¯Ńè¨Ģ": 980,
      "æ¼": 981,
      "et": 982,
      "åŃĺ": 983,
      "Ġ-": 984,
      "æİ¥": 985,
      "ĸçķ": 986,
      "äºĨè§£": 987,
      "èİ": 988,
      "åħī": 989,
      "ro": 990,
      "æµ·": 991,
      "ç½ĳ": 992,
      "åĨµ": 993,
      "è½¦": 994,
      "æĺŁ": 995,
      "åı¯ä»¥å¸®åĬ©": 996,
      "å¹¿": 997,
      "é¡¹": 998,
      "åĮº": 999,
      "æĸĩåĮĸ": 1000,
      "Ġe": 1001,
      "å·²": 1002,
      "çĬ": 1003,
      "æĶ¯": 1004,
      "æĽ´å¥½": 1005,
      "ç³»ç»Ł": 1006,
      "äººä»¬": 1007,
      "ç©º": 1008,
      "Ġl": 1009,
      "ä¿ĿæĬ¤": 1010,
      "åĬŁ": 1011,
      "è£": 1012,
      "åĳ³": 1013,
      "åı£": 1014,
      "å°ıæĺİ": 1015,
      "åİŁ": 1016,
      "ç¿": 1017,
      "Ġre": 1018,
      "åĪĴ": 1019,
      "å¤ª": 1020,
      "åıį": 1021,
      "æĹħ": 1022,
      "th": 1023,
      "å®īåħ¨": 1024,
      "èĩªå·±çļĦ": 1025,
      "è¾ĵ": 1026,
      "ä¹ī": 1027,
      "ä¸ªäºº": 1028,
      "å¿«": 1029,
      "åħ±": 1030,
      "è§Ĵ": 1031,
      "èĻĳ": 1032,
      "èĬ±": 1033,
      "è§Ħ": 1034,
      "æŀģ": 1035,
      "å¼ķ": 1036,
      "çĮ": 1037,
      "æĽ´å¥½åľ°": 1038,
      "ç«ĭ": 1039,
      "åķĨ": 1040,
      "Ġ$": 1041,
      "åĩıå°ĳ": 1042,
      "ll": 1043,
      "å§ĭ": 1044,
      "Ġ**": 1045,
      "im": 1046,
      "æ¸ħ": 1047,
      "éĻ©": 1048,
      "te": 1049,
      "äº§åĵģ": 1050,
      "è¶Ĭ": 1051,
      "åĲ¦": 1052,
      "ç®Ģ": 1053,
      "éĵ": 1054,
      "åĳĬ": 1055,
      "æľįåĬ¡": 1056,
      "ä»»åĬ¡": 1057,
      "æĢģ": 1058,
      "æ²¡æľī": 1059,
      "çĪ±": 1060,
      "å¤į": 1061,
      "çĶ¨æĪ·": 1062,
      "åĵª": 1063,
      "ç¦": 1064,
      "åĪĻ": 1065,
      "åĩł": 1066,
      "æ£": 1067,
      "åĽłä¸º": 1068,
      "è®¸": 1069,
      "è§£åĨ³": 1070,
      "Ġ3": 1071,
      "ä¸Ķ": 1072,
      "Ġh": 1073,
      "çĹħ": 1074,
      "ç»Ĩ": 1075,
      "è½»": 1076,
      "ãĢĬ": 1077,
      "ãĢĭ": 1078,
      "æľĪ": 1079,
      "éļı": 1080,
      "èĩ´": 1081,
      "çĶµå½±": 1082,
      "èıľ": 1083,
      "çº¿": 1084,
      "éĢŁ": 1085,
      "åıĤ": 1086,
      "åŁİ": 1087,
      "èĮ": 1088,
      "æľĽ": 1089,
      "æĽ´å¤ļ": 1090,
      "ä¿ĿæĮģ": 1091,
      "æĢĿ": 1092,
      "Ġ(": 1093,
      "ä»¥ä¸ĭæĺ¯": 1094,
      "éĩĩ": 1095,
      "ç¡®ä¿Ŀ": 1096,
      "ç§¯": 1097,
      "Ġy": 1098,
      "æİĴ": 1099,
      "åĮ»çĸĹ": 1100,
      "æĪĺ": 1101,
      "ä»¥åıĬ": 1102,
      "éħį": 1103,
      "ç®¡çĲĨ": 1104,
      "é¸": 1105,
      "è¯Ħ": 1106,
      "20": 1107,
      "çħ": 1108,
      "çİ¯ä¿Ŀ": 1109,
      "åĨħå®¹": 1110,
      "ä½Ĩæĺ¯": 1111,
      "ç¤¾ä¼ļ": 1112,
      "æĶ¶": 1113,
      "Ġ+": 1114,
      "è±¡": 1115,
      "ï¼ģ": 1116,
      "åĽ¾": 1117,
      "ve": 1118,
      "åĶ": 1119,
      "åħį": 1120,
      "Ġ\"": 1121,
      "ä¹ĭéĹ´": 1122,
      "ct": 1123,
      "ç»ĥ": 1124,
      "åĥ": 1125,
      "åĸľæ¬¢": 1126,
      "æŁ¥": 1127,
      "åı¥åŃĲ": 1128,
      "ç»Ń": 1129,
      "çļĦæĥ": 1130,
      "æķħ": 1131,
      "è¶³": 1132,
      "éĺŁ": 1133,
      "ä¾¿": 1134,
      "æŀĦ": 1135,
      "ç¼ĸ": 1136,
      "ä½łçļĦ": 1137,
      "åıĭ": 1138,
      "æıı": 1139,
      "è¾ĥ": 1140,
      "çĽ´": 1141,
      "å®ŀçİ°": 1142,
      "ç©¶": 1143,
      "çº¢": 1144,
      "è§ī": 1145,
      "id": 1146,
      "æ¸©": 1147,
      "éĢļå¸¸": 1148,
      "è¿ĳ": 1149,
      "æĸ½": 1150,
      "èĥ½åĬĽ": 1151,
      "ĠT": 1152,
      "æĪĳä»¬çļĦ": 1153,
      "æ»¡": 1154,
      "æĺ¯ä¸Ģç§į": 1155,
      "èĤ²": 1156,
      "åĲ¬": 1157,
      "ĠS": 1158,
      "10": 1159,
      "Ġth": 1160,
      "çłģ": 1161,
      "æĿĲ": 1162,
      "è¶£": 1163,
      "åĥı": 1164,
      "è°¢": 1165,
      "çłĶ": 1166,
      "ç¬¬": 1167,
      "æĤ¨çļĦ": 1168,
      "éĽĨ": 1169,
      "ç»´": 1170,
      "éĺ³": 1171,
      "ä¸ĸçķ": 1172,
      "æĳ": 1173,
      "ä¸ĸçķĮ": 1174,
      "æĪĸèĢħ": 1175,
      "äºĴ": 1176,
      "èĭ±": 1177,
      "åħĭ": 1178,
      "ç¥ŀ": 1179,
      "ä¸ŃåĽ½": 1180,
      "å·²ç»ı": 1181,
      "å¸Ĥåľº": 1182,
      "ow": 1183,
      "è§ģ": 1184,
      "æ¤": 1185,
      "ï¼Ľ": 1186,
      "åı²": 1187,
      "è®¾è®¡": 1188,
      "Ġg": 1189,
      "å¥¹": 1190,
      "ä»½": 1191,
      "è®¸å¤ļ": 1192,
      "é¤": 1193,
      "èĢĥèĻĳ": 1194,
      "ä¹ĭä¸Ģ": 1195,
      "è¿ĩç¨ĭ": 1196,
      "çĬ¶": 1197,
      "ot": 1198,
      "çļĦæĬ": 1199,
      "ä¹¦": 1200,
      "çº¦": 1201,
      "è®¤ä¸º": 1202,
      "éĶĢ": 1203,
      "ä¸»è¦ģ": 1204,
      "çĲĨè§£": 1205,
      "æļ": 1206,
      "ä½İ": 1207,
      "æĺĵ": 1208,
      "åħ·ä½ĵ": 1209,
      "æ´»åĬ¨": 1210,
      "åĽ¢": 1211,
      "åĲ«": 1212,
      "åĪ°äºĨ": 1213,
      "å¸Ī": 1214,
      "èĲ¥": 1215,
      "éŁ³ä¹Ĳ": 1216,
      "ä¸ĵ": 1217,
      "èģĶ": 1218,
      "å®¢æĪ·": 1219,
      "æ³¨æĦı": 1220,
      "èº«ä½ĵ": 1221,
      "è½¬": 1222,
      "æİ§": 1223,
      "é¤Ĳ": 1224,
      "èĳ": 1225,
      "åı¯èĥ½ä¼ļ": 1226,
      "ç¢": 1227,
      "ä¸Ģç¯ĩ": 1228,
      "è´¹": 1229,
      "çĥŃ": 1230,
      "é¥®": 1231,
      "ä¸įæĸŃ": 1232,
      "am": 1233,
      "ä¸¤ä¸ª": 1234,
      "çīĩ": 1235,
      "è®°": 1236,
      "è®¡åĪĴ": 1237,
      "æķ°åŃĹ": 1238,
      "éľĢæ±Ĥ": 1239,
      "ig": 1240,
      "us": 1241,
      "ä¸Ģä¸ĭ": 1242,
      "ly": 1243,
      "åĲ¸": 1244,
      "ce": 1245,
      "éĶ®": 1246,
      "æĺ¯åĲ¦": 1247,
      "éĤ£ä¹Ī": 1248,
      "äº«": 1249,
      "ç½®": 1250,
      "éĶĻ": 1251,
      "ers": 1252,
      "èİ·": 1253,
      "çĽ®æłĩ": 1254,
      "åŁİå¸Ĥ": 1255,
      "æııè¿°": 1256,
      "æŃĮ": 1257,
      "å¯¹äºİ": 1258,
      "æĪĲä¸º": 1259,
      "å®ļçļĦ": 1260,
      "æĿ¡": 1261,
      "æİ¢": 1262,
      "çĻ½": 1263,
      "ĠA": 1264,
      "æ²»": 1265,
      "åĢĻ": 1266,
      "éļ¾": 1267,
      "çľŁ": 1268,
      "å¼Ģå§ĭ": 1269,
      "åį³": 1270,
      "å¸Į": 1271,
      "æīĵ": 1272,
      "è¯»": 1273,
      "```": 1274,
      "æŃ¤å¤ĸ": 1275,
      "ç§ĳæĬĢ": 1276,
      "èĩ³": 1277,
      "ation": 1278,
      "éĻ¤": 1279,
      "æĶ¿": 1280,
      "çĶ¨äºİ": 1281,
      "åĨį": 1282,
      "ç´¢": 1283,
      "ç®Ĺæ³ķ": 1284,
      "è´¨éĩı": 1285,
      "è¯ģ": 1286,
      "æĪĳä»¬åı¯ä»¥": 1287,
      "è·¯": 1288,
      "æķĻèĤ²": 1289,
      "æĲ": 1290,
      "$$": 1291,
      "å°½": 1292,
      "éģ¿": 1293,
      "åħ·æľī": 1294,
      "åħ´": 1295,
      "ç¬¦": 1296,
      "ç²¾": 1297,
      "åıĺåĮĸ": 1298,
      "åĪĨç±»": 1299,
      "æħ": 1300,
      "åĳ½": 1301,
      "èĤī": 1302,
      "çļĦäºº": 1303,
      "ä¸»é¢ĺ": 1304,
      "å¯Į": 1305,
      "ä¸Ģç§į": 1306,
      "è¿Ļç§į": 1307,
      "å¾ĭ": 1308,
      "Ġ5": 1309,
      "åĳ¢": 1310,
      "å¸¦æĿ¥": 1311,
      "åħħ": 1312,
      "qu": 1313,
      "æķħäºĭ": 1314,
      "ĊĠĠ": 1315,
      "éĢĤåĲĪ": 1316,
      "å¤´": 1317,
      "åĬ¿": 1318,
      "çļĦæĥħ": 1319,
      "åĭ": 1320,
      "ut": 1321,
      "æĵ": 1322,
      "æ¨¡åŀĭ": 1323,
      "ä»İèĢĮ": 1324,
      "ol": 1325,
      "ç±³": 1326,
      "èĢģ": 1327,
      "è´Ń": 1328,
      "ç³ĸ": 1329,
      "çŃĸ": 1330,
      "è£ħ": 1331,
      "æĥħåĨµ": 1332,
      "å¯¼èĩ´": 1333,
      "æĪı": 1334,
      "åŃ¦çĶŁ": 1335,
      "è®Ń": 1336,
      "èĩªåĬ¨": 1337,
      "ur": 1338,
      "if": 1339,
      "å½ĵçĦ¶": 1340,
      "è¿ĲåĬ¨": 1341,
      "å¯»": 1342,
      "åĲĦç§į": 1343,
      "å²": 1344,
      "éĩįè¦ģçļĦ": 1345,
      "ul": 1346,
      "å¼ł": 1347,
      "æķĪçİĩ": 1348,
      "ä¸įåĲĮçļĦ": 1349,
      "èĽ": 1350,
      "åİĨåı²": 1351,
      "è¯Ĺ": 1352,
      "æĬķ": 1353,
      "ĠI": 1354,
      "å®ĮæĪĲ": 1355,
      "éĻħ": 1356,
      "åħ³éĶ®": 1357,
      "æ¼Ķ": 1358,
      "å¥³": 1359,
      "èīº": 1360,
      "çłĶç©¶": 1361,
      "Ġyou": 1362,
      "å°Ŀ": 1363,
      "éģ¿åħį": 1364,
      "æīį": 1365,
      "åİĭ": 1366,
      "ç»ĵæŀľ": 1367,
      "æ¬¾": 1368,
      "çļĦå½±åĵį": 1369,
      "å¸ĮæľĽ": 1370,
      "å±±": 1371,
      "æľºåĻ¨åŃ¦ä¹ł": 1372,
      "åĽŀçŃĶ": 1373,
      "æĸ°çļĦ": 1374,
      "çĭ¬": 1375,
      "ç»ĻæĪĳ": 1376,
      "æ¶Ī": 1377,
      "è¯ĨåĪ«": 1378,
      "çĽ¸åħ³": 1379,
      "åĪ©çĶ¨": 1380,
      "çļĦåıĳå±ķ": 1381,
      "ç¨ĭåºı": 1382,
      "ä¹°": 1383,
      "ä¼ģ": 1384,
      "ĠC": 1385,
      "åħ»": 1386,
      "æĶ¯æĮģ": 1387,
      "ç¿»": 1388,
      "åı¯ä»¥éĢļè¿ĩ": 1389,
      "Ġ4": 1390,
      "å¿ħ": 1391,
      "un": 1392,
      "åħ¶ä¸Ń": 1393,
      "æĬ¥": 1394,
      "å¤±": 1395,
      "åĳ¨": 1396,
      "å¡": 1397,
      "å¯¹è¯Ŀ": 1398,
      "æĸ¯": 1399,
      "çĦ¶åĲİ": 1400,
      "è¥": 1401,
      "çı": 1402,
      "åĬ¨çī©": 1403,
      "yth": 1404,
      "å¾Īå¤ļ": 1405,
      "é¦ĸåħĪ": 1406,
      "å¢ŀåĬł": 1407,
      "ä»ħ": 1408,
      "ä¸½": 1409,
      "åįĩ": 1410,
      "è¥¿": 1411,
      "èĲ½": 1412,
      "##": 1413,
      "èģĮ": 1414,
      "éĹ¨": 1415,
      "æľĭ": 1416,
      "Ġfor": 1417,
      "ãģ": 1418,
      "äº§çĶŁ": 1419,
      "å¯Ĩ": 1420,
      "èįĲ": 1421,
      "éĩĬ": 1422,
      "çļĦæĢ": 1423,
      "è¡Įä¸º": 1424,
      "åĮ»çĶŁ": 1425,
      "åı·": 1426,
      "èµĦæºĲ": 1427,
      "çļĦæĸĩç«ł": 1428,
      "åıĳçİ°": 1429,
      "æľĭåıĭ": 1430,
      "è¯ī": 1431,
      "ç§°": 1432,
      "ython": 1433,
      "åħ¨çĲĥ": 1434,
      "æĿ¾": 1435,
      "åĽ¢éĺŁ": 1436,
      "ä»ĭ": 1437,
      "ä¼ģä¸ļ": 1438,
      "çļĦæĦ": 1439,
      "èħ": 1440,
      "æŁĵ": 1441,
      "åħ³ç³»": 1442,
      "çİ°åľ¨": 1443,
      "å¤ı": 1444,
      "èŀ": 1445,
      "çĭĹ": 1446,
      "åĩĨç¡®": 1447,
      "çŁŃ": 1448,
      "æ¯ıä¸ª": 1449,
      "çħ§": 1450,
      "ä»Ĭ": 1451,
      "äºĮ": 1452,
      "ir": 1453,
      "æŁĲ": 1454,
      "åĽ´": 1455,
      "ä¸Ģæ®µ": 1456,
      "æ¯Ķå¦Ĥ": 1457,
      "é£İéĻ©": 1458,
      "å¸ĥ": 1459,
      "Ġ\\(": 1460,
      "ä»£çłģ": 1461,
      "å·¥åħ·": 1462,
      "å·§": 1463,
      "åľ°çĲĥ": 1464,
      "æ¢": 1465,
      "ªæĸ½": 1466,
      "åŃĺåľ¨": 1467,
      "è¡¨è¾¾": 1468,
      "ç§ĳåŃ¦": 1469,
      "æİ¨èįĲ": 1470,
      "æ³Ľ": 1471,
      "çļĦéĹ®é¢ĺ": 1472,
      "èĽĭ": 1473,
      "åŃ£": 1474,
      "è¿Ļæł·": 1475,
      "è¯ĳ": 1476,
      "æİ§åĪ¶": 1477,
      "ay": 1478,
      "ä½ľä¸º": 1479,
      "ç¦»": 1480,
      "ge": 1481,
      "å»ºç«ĭ": 1482,
      "éĻĲ": 1483,
      "çŃīçŃī": 1484,
      "æīĢæľī": 1485,
      "é¦Ļ": 1486,
      "æıĲåıĸ": 1487,
      "åĿĩ": 1488,
      "é²": 1489,
      "æĤ¨åı¯ä»¥": 1490,
      "åı°": 1491,
      "ad": 1492,
      "Â·": 1493,
      "ĳæĪĺ": 1494,
      "Ġst": 1495,
      "æĸ¹æ¡Ī": 1496,
      "æĪĳæĥ³": 1497,
      "å¾ĹåĪ°": 1498,
      "ist": 1499,
      "éĺ²": 1500,
      "åºŃ": 1501,
      "åı¤": 1502,
      "åĬŁèĥ½": 1503,
      "çª": 1504,
      "åĪ¶å®ļ": 1505,
      "åŃ©": 1506,
      "æľĢåĲİ": 1507,
      "èŀį": 1508,
      "æĢ§åĴĮ": 1509,
      "å¨": 1510,
      "é»ĳ": 1511,
      "iv": 1512,
      "è¿ľ": 1513,
      "å¹¿æ³Ľ": 1514,
      "åĪ¶ä½ľ": 1515,
      "å°Ŀè¯ķ": 1516,
      "æ¸¸æĪı": 1517,
      "å¹¶ä¸Ķ": 1518,
      "åĩ½": 1519,
      "ä¸Ģèµ·": 1520,
      "çļĦåºĶçĶ¨": 1521,
      "è®¡ç®Ĺæľº": 1522,
      "æĬĬ": 1523,
      "ç¡®å®ļ": 1524,
      "æĪĳçļĦ": 1525,
      "il": 1526,
      "éĻį": 1527,
      "æĢ»ä¹ĭ": 1528,
      "åĶ®": 1529,
      "å¤§çļĦ": 1530,
      "æ²¹": 1531,
      "å£°": 1532,
      "ç»ľ": 1533,
      "äº¤éĢļ": 1534,
      "åĩ½æķ°": 1535,
      "ate": 1536,
      "åĸĦ": 1537,
      "ç»Ī": 1538,
      "æĴ": 1539,
      "çŁ¥éģĵ": 1540,
      "çīĮ": 1541,
      "æį¢": 1542,
      "ä¿®": 1543,
      "æĥħæĦŁ": 1544,
      "çļĦæĺ¯": 1545,
      "ç¿»è¯ĳ": 1546,
      "çļĦæ°": 1547,
      "æĪ¿": 1548,
      "è§Ĵèī²": 1549,
      "æīĢä»¥": 1550,
      "ä¹ĭéĹ´çļĦ": 1551,
      "æľīæķĪ": 1552,
      "æ°ĳ": 1553,
      "è¦ģæ±Ĥ": 1554,
      "è¯¯": 1555,
      "åĵªäºĽ": 1556,
      "åĨĻä¸Ģç¯ĩ": 1557,
      "ç§¯æŀģ": 1558,
      "éĩĩåıĸ": 1559,
      "å®¶åºŃ": 1560,
      "ith": 1561,
      "çĶ»": 1562,
      "æī¾åĪ°": 1563,
      "se": 1564,
      "äººå·¥æĻºèĥ½æĬĢæľ¯": 1565,
      "åĪĩ": 1566,
      "çĽĬ": 1567,
      "è¾ĵåħ¥": 1568,
      "åĳĬè¯ī": 1569,
      "äººçļĦ": 1570,
      "ç»į": 1571,
      "åı¦": 1572,
      "æĮī": 1573,
      "çĽĳ": 1574,
      "ä»ĭç»į": 1575,
      "åĬłåħ¥": 1576,
      "éļıçĿĢ": 1577,
      "é¢Ħæµĭ": 1578,
      "æĮģç»Ń": 1579,
      "ä¼łç»Ł": 1580,
      "å¿µ": 1581,
      "ä»»ä½ķ": 1582,
      "æ£Ģ": 1583,
      "ĠP": 1584,
      "æĿİ": 1585,
      "è¾¹": 1586,
      "ä¼Ĺ": 1587,
      "ec": 1588,
      "éĥ¨åĪĨ": 1589,
      "äºī": 1590,
      "æĪĳä»¬éľĢè¦ģ": 1591,
      "åĲĥ": 1592,
      "ä½łåı¯ä»¥": 1593,
      "åĽłç´ł": 1594,
      "æ¿": 1595,
      "æĽ´å¤ļçļĦ": 1596,
      "å¾·": 1597,
      "çº§": 1598,
      "ç½ĳç»ľ": 1599,
      "å¤ªéĺ³": 1600,
      "ä½ľçĶ¨": 1601,
      "èīºæľ¯": 1602,
      "è´Ł": 1603,
      "æĭ¥": 1604,
      "ç¤¾äº¤": 1605,
      "å¾ģ": 1606,
      "ä»ĸä»¬çļĦ": 1607,
      "èĥ½æºĲ": 1608,
      "æ¤į": 1609,
      "è¿ĺæľī": 1610,
      "int": 1611,
      "æĹłæ³ķ": 1612,
      "æİªæĸ½": 1613,
      "å¹²": 1614,
      "è®Ńç»ĥ": 1615,
      "çĮ«": 1616,
      "æĪĲåĬŁ": 1617,
      "æĿĥ": 1618,
      "å¼Ģåıĳ": 1619,
      "ä½ĵéªĮ": 1620,
      "æµİ": 1621,
      "åª": 1622,
      "Ġcon": 1623,
      "rac": 1624,
      "æŃ£åľ¨": 1625,
      "é¥®é£Ł": 1626,
      "ç®Ģåįķ": 1627,
      "Ġas": 1628,
      "ä¸°": 1629,
      "è®²": 1630,
      "ä¼°": 1631,
      "è§£éĩĬ": 1632,
      "æĿĲæĸĻ": 1633,
      "Ġv": 1634,
      "èµ·æĿ¥": 1635,
      "æľĢè¿ĳ": 1636,
      "åħ³æ³¨": 1637,
      "çĨ": 1638,
      "æĬķèµĦ": 1639,
      "çİ©": 1640,
      "çģ«": 1641,
      "xt": 1642,
      "å®³": 1643,
      "æĿ¥è¯´": 1644,
      "åĿĹ": 1645,
      "çļĦæĬĢ": 1646,
      "åĽĽ": 1647,
      "ç»ıæµİ": 1648,
      "¡æŁĵ": 1649,
      "æĦŁåĪ°": 1650,
      "ä»¥ä¸ĭæĺ¯ä¸ĢäºĽ": 1651,
      "çļĦæİ": 1652,
      "èİ·å¾Ĺ": 1653,
      "Ġpro": 1654,
      "ç«Ļ": 1655,
      "ĠĠĠĠ": 1656,
      "çŃĶæ¡Ī": 1657,
      "è½¯": 1658,
      "èĳĹ": 1659,
      "æ¿Ģ": 1660,
      "é¼": 1661,
      "å¤©æ°Ķ": 1662,
      "åĽŃ": 1663,
      "Ġare": 1664,
      "åĪĽéĢł": 1665,
      "ä¼¼": 1666,
      "åŁºäºİ": 1667,
      "¦Ĥ": 1668,
      "pp": 1669,
      "ä¸įæĺ¯": 1670,
      "ke": 1671,
      "é¡¹çĽ®": 1672,
      "çĥ¤": 1673,
      "æĹħæ¸¸": 1674,
      "æĭī": 1675,
      "ç±»åŀĭ": 1676,
      "èī¯": 1677,
      "åįİ": 1678,
      "é©¬": 1679,
      "èį¯": 1680,
      "è¡¨ç¤º": 1681,
      "æĿĤ": 1682,
      "æ²»çĸĹ": 1683,
      "è®¾å¤ĩ": 1684,
      "ä»·åĢ¼": 1685,
      "å°Ķ": 1686,
      "å£«": 1687,
      "çļĦéĩįè¦ģ": 1688,
      "ä»¥ä¸Ĭ": 1689,
      "åıĹåĪ°": 1690,
      "æĽ²": 1691,
      "æĹħè¡Į": 1692,
      "èµĽ": 1693,
      "éĥ½æĺ¯": 1694,
      "ä¸įä»ħ": 1695,
      "è¡Įä¸ļ": 1696,
      "è®¨": 1697,
      "ç»ıéªĮ": 1698,
      "é£Łçī©": 1699,
      "åĦ": 1700,
      "éħĴ": 1701,
      "å±ħ": 1702,
      "éª¤": 1703,
      "è¡¨çİ°": 1704,
      "åĬĽåĴĮ": 1705,
      "åĩłä¸ª": 1706,
      "éģĩ": 1707,
      "åĪĹè¡¨": 1708,
      "ç»Ļåĩº": 1709,
      "é¸¡": 1710,
      "åĩºçİ°": 1711,
      "é¢ľ": 1712,
      "å¦ĤæŀľæĤ¨": 1713,
      "çŁ¥è¯Ĩ": 1714,
      "çĶŁäº§": 1715,
      "æŀĹ": 1716,
      "Ġwe": 1717,
      "Ġr": 1718,
      "æĮĳæĪĺ": 1719,
      "ä¸°å¯Į": 1720,
      "ç»¿": 1721,
      "å®¤": 1722,
      "åªĴ": 1723,
      "ä»·æł¼": 1724,
      "åįı": 1725,
      "res": 1726,
      "å¾Ģ": 1727,
      "äºĨä¸Ģ": 1728,
      "ĠB": 1729,
      "è¯Ĭ": 1730,
      "å±Ĥ": 1731,
      "äºĶ": 1732,
      "çļĦåľ°": 1733,
      "è¯¦": 1734,
      "åĵģçīĮ": 1735,
      "Ġon": 1736,
      "èµ°": 1737,
      "è¡¡": 1738,
      "é£ŀ": 1739,
      "od": 1740,
      "é»Ħ": 1741,
      "000": 1742,
      "ä¸ĵä¸ļ": 1743,
      "å¤§éĩı": 1744,
      "åįķè¯į": 1745,
      "åĤ": 1746,
      "ä¸ºäºĨ": 1747,
      "æľºä¼ļ": 1748,
      "æĤ£": 1749,
      "åĬ±": 1750,
      "æīįèĥ½": 1751,
      "æ±¡æŁĵ": 1752,
      "è´£": 1753,
      "Ġbe": 1754,
      "é±": 1755,
      "ä¹Łæĺ¯": 1756,
      "¾çĹħ": 1757,
      "åĲĪä½ľ": 1758,
      "çĳ": 1759,
      "çİ°ä»£": 1760,
      "æĺ¾": 1761,
      "é±¼": 1762,
      "ä¹Łåı¯ä»¥": 1763,
      "ç»ĩ": 1764,
      "æĢİ": 1765,
      "å¾®": 1766,
      "é¾": 1767,
      "ch": 1768,
      "ld": 1769,
      "èįī": 1770,
      "Ġnum": 1771,
      "Ġthat": 1772,
      "Ġor": 1773,
      "æ¯Ķè¾ĥ": 1774,
      "çĶŁçī©": 1775,
      "and": 1776,
      "æŃ£ç¡®": 1777,
      "è¾ĵåĩº": 1778,
      "è¶ħ": 1779,
      "ri": 1780,
      "ver": 1781,
      "å¾ħ": 1782,
      "è¯Ħä¼°": 1783,
      "ä¸Ģä½į": 1784,
      "æľºåĻ¨äºº": 1785,
      "ht": 1786,
      "Ġ6": 1787,
      "è¯¦ç»Ĩ": 1788,
      "æĺ¯ä»Ģä¹Ī": 1789,
      "Ġwith": 1790,
      "ä»¥ä¾¿": 1791,
      "èĮĥ": 1792,
      "ab": 1793,
      "æ½": 1794,
      "é¢ľèī²": 1795,
      "åħĥç´ł": 1796,
      "åªĴä½ĵ": 1797,
      "åł": 1798,
      "éļĲ": 1799,
      "ĠM": 1800,
      "è¯·éĹ®": 1801,
      "åįĹ": 1802,
      "çĶ·": 1803,
      "åĮĹ": 1804,
      "èĩªçĦ¶è¯Ńè¨Ģ": 1805,
      "æ©": 1806,
      "èĭ¹": 1807,
      "èĭ¹æŀľ": 1808,
      "å¤ļå°ĳ": 1809,
      "ä¿ĥ": 1810,
      "éĶĢåĶ®": 1811,
      "Ġhe": 1812,
      "ç§ģ": 1813,
      "å¦Ĥæŀľä½ł": 1814,
      "æĭ¥æľī": 1815,
      "ç»ĵæŀĦ": 1816,
      "æ¯į": 1817,
      "æĭŁ": 1818,
      "è´Ńä¹°": 1819,
      "è¯¢": 1820,
      "ä¸ºæĤ¨": 1821,
      "ä»ĸçļĦ": 1822,
      "å¼Ĥ": 1823,
      "éĿĻ": 1824,
      "çīĽ": 1825,
      "éĴŁ": 1826,
      "12": 1827,
      "åħ´è¶£": 1828,
      "å±ŀ": 1829,
      "åĬª": 1830,
      "åĨ³çŃĸ": 1831,
      "çļĦä¸Ģ": 1832,
      "å·®": 1833,
      "æİ¢ç´¢": 1834,
      "å¥ĩ": 1835,
      "åįģ": 1836,
      "åĪ»": 1837,
      "ĠThe": 1838,
      "èŃ": 1839,
      "est": 1840,
      "çĸ¾çĹħ": 1841,
      "åĪĽæĸ°": 1842,
      "åĦ¿": 1843,
      "ç¼º": 1844,
      "çļĦæĶ": 1845,
      "çĶŁæĪĲä¸Ģä¸ª": 1846,
      "åĮħåĲ«": 1847,
      "æķĪæŀľ": 1848,
      "æķ°éĩı": 1849,
      "ĠF": 1850,
      "è¿Ļæĺ¯": 1851,
      "åºľ": 1852,
      "å¥¶": 1853,
      "äºļ": 1854,
      "æķ°åŃ¦": 1855,
      "åĴĸ": 1856,
      "å¿ĥçĲĨ": 1857,
      "åĽ°": 1858,
      "æĪĳä¼ļ": 1859,
      "ä¼ĺåĮĸ": 1860,
      "å¯»æī¾": 1861,
      "åģĩ": 1862,
      "å½ķ": 1863,
      "çļĦæĻ": 1864,
      "pt": 1865,
      "åĳĬè¯īæĪĳ": 1866,
      "---": 1867,
      "è¿Ļç¯ĩ": 1868,
      "çļĦæł": 1869,
      "é²ľ": 1870,
      "Ġit": 1871,
      "èĥĮ": 1872,
      "åıĳçĶŁ": 1873,
      "og": 1874,
      "èĵ": 1875,
      "ä½ľåĵģ": 1876,
      "æĻļ": 1877,
      "ä»¤": 1878,
      "Ġx": 1879,
      "çĶŁåĳ½": 1880,
      "çļĦæĸ¹æ³ķ": 1881,
      "å¤įæĿĤ": 1882,
      "æļĸ": 1883,
      "os": 1884,
      "ä¸ĬçļĦ": 1885,
      "è¯ĬæĸŃ": 1886,
      "æĿ¥è¶Ĭ": 1887,
      "æłĳ": 1888,
      "15": 1889,
      "åºĹ": 1890,
      "ain": 1891,
      "å°ıè¯´": 1892,
      "è¶ĬæĿ¥è¶Ĭ": 1893,
      "åŃ©åŃĲ": 1894,
      "è¿½": 1895,
      "æĻ®": 1896,
      "è°ĥæķ´": 1897,
      "çİĭ": 1898,
      "éĨ": 1899,
      "ä¸¥": 1900,
      "çļĦæī": 1901,
      "æ°ĶåĢĻ": 1902,
      "The": 1903,
      "çī¹å¾ģ": 1904,
      "è¿ĩç¨ĭä¸Ń": 1905,
      "è´¢": 1906,
      "æľīåħ³": 1907,
      "éĶĻè¯¯": 1908,
      "æ´ĭ": 1909,
      "çĶŁæĢģ": 1910,
      "é£İæł¼": 1911,
      "åķ¡": 1912,
      "éĺħ": 1913,
      "éĹ»": 1914,
      "æŃ¥éª¤": 1915,
      "åĲ§": 1916,
      "åħ±åĲĮ": 1917,
      "åĳĺå·¥": 1918,
      "hn": 1919,
      "åħ¸": 1920,
      "æľīè¶£": 1921,
      "åĴĸåķ¡": 1922,
      "åį¡": 1923,
      "èĶ": 1924,
      "åĩĨå¤ĩ": 1925,
      "el": 1926,
      "çªģ": 1927,
      "èĴ": 1928,
      "é¢ĳ": 1929,
      "å®Ŀ": 1930,
      "ŁéĢļ": 1931,
      "Ġ8": 1932,
      "çĶµåŃĲ": 1933,
      "ç»Ħç»ĩ": 1934,
      "åĳ¼": 1935,
      "19": 1936,
      "çĵ": 1937,
      "çļĦç¾": 1938,
      "è¿ŀ": 1939,
      "æ·±åº¦": 1940,
      "our": 1941,
      "æľīä»Ģä¹Ī": 1942,
      "æĶ¿åºľ": 1943,
      "ä¸ĭéĿ¢": 1944,
      "åĩ»": 1945,
      "çļĦæŃ": 1946,
      "è¯ŃéŁ³": 1947,
      "èĪĴ": 1948,
      "ï¼ļâĢľ": 1949,
      "æķ£": 1950,
      "Ġ0": 1951,
      "åİħ": 1952,
      "äº¤æµģ": 1953,
      "çļĦä¿¡æģ¯": 1954,
      "æĹ©": 1955,
      "å®ŀéĻħ": 1956,
      "æ´ģ": 1957,
      "éº": 1958,
      "åı¶": 1959,
      "çŃĳ": 1960,
      "å·´": 1961,
      "pl": 1962,
      "éĩĳèŀį": 1963,
      "ä¸įèĥ½": 1964,
      "à¤": 1965,
      "ä¸ľ": 1966,
      "åĬªåĬĽ": 1967,
      "çĶ±äºİ": 1968,
      "æľĢç»Ī": 1969,
      "æĬĢèĥ½": 1970,
      "æ¤įçī©": 1971,
      "AIæĬĢæľ¯": 1972,
      "ä¸ĩ": 1973,
      "åĬłå¼º": 1974,
      "å¤ľ": 1975,
      "ãĢĤâĢĿ": 1976,
      "è¶ĭ": 1977,
      "æ¹": 1978,
      "èĦĳ": 1979,
      "è¿ĺåı¯ä»¥": 1980,
      "ĸçķ¥": 1981,
      "çŃĸçķ¥": 1982,
      "åĪ¤": 1983,
      "å»ºçŃĳ": 1984,
      "çļĦæµ": 1985,
      "çļĦæ²": 1986,
      "Ġby": 1987,
      "Jo": 1988,
      "åĿļ": 1989,
      "Python": 1990,
      "ä¸´": 1991,
      "ç»Ļå®ļçļĦ": 1992,
      "ä½łå¥½": 1993,
      "æĶ¹åıĺ": 1994,
      "ä¸Ģä»½": 1995,
      "èĩªçĦ¶è¯Ńè¨Ģå¤ĦçĲĨ": 1996,
      "ç²ī": 1997,
      "ĥåľ": 1998,
      "ä¸ĢæŃ¥": 1999,
      "éĢĲ": 2000,
      "ç»ĥä¹ł": 2001,
      "åį°": 2002,
      "em": 2003,
      "åŀĥåľ": 2004,
      "åŀĥåľ¾": 2005,
      "ç´§": 2006,
      "æĤ£èĢħ": 2007,
      "å¿«éĢŁ": 2008,
      "åī§": 2009,
      "å½ĵåľ°": 2010,
      "çģµ": 2011,
      "nt": 2012,
      "åŁ¹": 2013,
      "åĬ©äºİ": 2014,
      "æµª": 2015,
      "æŃ¢": 2016,
      "ĠE": 2017,
      "ĠW": 2018,
      "è¡ĮåĬ¨": 2019,
      "ç¦ı": 2020,
      "Ġ\\)": 2021,
      "text": 2022,
      "å°Ĩä¼ļ": 2023,
      "åıĺå¾Ĺ": 2024,
      "ä½ı": 2025,
      "ç»Ļå®ļ": 2026,
      "ĠH": 2027,
      "ä»Ĭå¤©": 2028,
      "è¶ĭåĬ¿": 2029,
      "}{": 2030,
      "çŁ³": 2031,
      "æ±½": 2032,
      "çļĦæĦı": 2033,
      "åº¦åĴĮ": 2034,
      "æĬĢå·§": 2035,
      "èģĮä¸ļ": 2036,
      "ĠD": 2037,
      "å°Ĭ": 2038,
      "åľŁ": 2039,
      "SS": 2040,
      "æ³¢": 2041,
      "å°±æĺ¯": 2042,
      "å½©": 2043,
      "éĺħè¯»": 2044,
      "æĪĳåı¯ä»¥": 2045,
      "ç¾¤": 2046,
      "å¹³åı°": 2047,
      "åı¯æĮģç»Ń": 2048,
      "åŃĹç¬¦": 2049,
      "frac": 2050,
      "çļĦç¾İ": 2051,
      "âĢĿï¼Į": 2052,
      "èĪŀ": 2053,
      "ber": 2054,
      "äº¬": 2055,
      "çļ®": 2056,
      "ç¾İåĽ½": 2057,
      "çī©è´¨": 2058,
      "é¢Ŀ": 2059,
      "âĢĿãĢĤ": 2060,
      "åĮĸçļĦ": 2061,
      "ç»ª": 2062,
      "è¡£": 2063,
      "ç¥¨": 2064,
      "æľīåĬ©äºİ": 2065,
      "æ¸Ĳ": 2066,
      "æ¯ıä¸ªäºº": 2067,
      "ight": 2068,
      "åĲ¸å¼ķ": 2069,
      "æ°§": 2070,
      "įä½ľ": 2071,
      "æĹı": 2072,
      "äºĨä¸Ģä¸ª": 2073,
      "åħ¬åı¸çļĦ": 2074,
      "ç¬Ķ": 2075,
      "åľ¨è¿Ļä¸ª": 2076,
      "ä¿ĥè¿Ľ": 2077,
      "åİĭåĬĽ": 2078,
      "åĪĿ": 2079,
      "è¾ĳ": 2080,
      "è¯¾": 2081,
      "æ¦Ĥ": 2082,
      "åģļåĩº": 2083,
      "éĽ¨": 2084,
      "æĿ¿": 2085,
      "èľ": 2086,
      "çļĦæ¸": 2087,
      "åĪĨéĴŁ": 2088,
      "ant": 2089,
      "æĢ§çļĦ": 2090,
      "è¿Ļç¯ĩæĸĩç«ł": 2091,
      "ä»£è¡¨": 2092,
      "ä½łèĥ½": 2093,
      "Ġwh": 2094,
      "ice": 2095,
      "è¿İ": 2096,
      "åĽ¾åĥı": 2097,
      "æĺ¯çļĦ": 2098,
      "Ġcom": 2099,
      "ç©¿": 2100,
      "ity": 2101,
      "é£Łåĵģ": 2102,
      "åľºæĻ¯": 2103,
      "çĩ": 2104,
      "å®ĥçļĦ": 2105,
      "ç¼ĵ": 2106,
      "è¿ĺæĺ¯": 2107,
      "éĩĩçĶ¨": 2108,
      "'s": 2109,
      "æĺ¥": 2110,
      "æĶ¾æĿ¾": 2111,
      "John": 2112,
      "ive": 2113,
      "è½¯ä»¶": 2114,
      "Ġ7": 2115,
      "å¦Ĥä¸ĭ": 2116,
      "æħ¢": 2117,
      "Ġ10": 2118,
      "é©¶": 2119,
      "Ġcan": 2120,
      "è¿ĻéĩĮ": 2121,
      "çī¹çĤ¹": 2122,
      "ä½įç½®": 2123,
      "çļĦç¤": 2124,
      "åŁºæľ¬": 2125,
      "ä¸įè¦ģ": 2126,
      "å¤ļç§į": 2127,
      "ä¸¾": 2128,
      "å¸¸è§ģ": 2129,
      "èĶ¬": 2130,
      "æ²Ļ": 2131,
      "ä¸īä¸ª": 2132,
      "èª": 2133,
      "ç§ĭ": 2134,
      "äºĳ": 2135,
      "50": 2136,
      "é¼ĵ": 2137,
      "å¢ŀå¼º": 2138,
      "éļĲç§ģ": 2139,
      "åĨ°": 2140,
      "çļĦæķ°æį®": 2141,
      "ç§»": 2142,
      "åĨĻä¸Ģç¯ĩåħ³äºİ": 2143,
      "sw": 2144,
      "###": 2145,
      "èģĶç³»": 2146,
      "æĪĲæľ¬": 2147,
      "å¹³è¡¡": 2148,
      "éĻįä½İ": 2149,
      "æĢİä¹Ī": 2150,
      "ç¼ĸç¨ĭ": 2151,
      "ä¸ĢåĲį": 2152,
      "æ·»": 2153,
      "ess": 2154,
      "ue": 2155,
      "30": 2156,
      "éŃ": 2157,
      "\\)": 2158,
      "Ġex": 2159,
      "èĻ½": 2160,
      "ĊĠĠĠ": 2161,
      "é¸Ł": 2162,
      "å¹´è½»": 2163,
      "çŃīæĸ¹éĿ¢": 2164,
      "æĳĦ": 2165,
      "åıĤä¸İ": 2166,
      "èĵĿ": 2167,
      "éĥ½æľī": 2168,
      "åıĪ": 2169,
      "ment": 2170,
      "ä»¥ç¡®ä¿Ŀ": 2171,
      "å¹³åĿĩ": 2172,
      "è¡Ģ": 2173,
      "åŁºç¡": 2174,
      "äºĭä»¶": 2175,
      "é¡»": 2176,
      "çķĻ": 2177,
      "æĿ¯": 2178,
      "åŁºç¡Ģ": 2179,
      "æĥ³è¦ģ": 2180,
      "Ġne": 2181,
      "èĶ¬èıľ": 2182,
      "ä¸ªæĢ§": 2183,
      "çĭ¬çī¹": 2184,
      "åİŁåĽł": 2185,
      "èģĬ": 2186,
      "å°ıçº¢": 2187,
      "é¤Ĳåİħ": 2188,
      "æľ¨": 2189,
      "è±Ĩ": 2190,
      "å½ĵçĦ¶åı¯ä»¥": 2191,
      "å©": 2192,
      "ä¸įä¼ļ": 2193,
      "ç¤¾äº¤åªĴä½ĵ": 2194,
      "åħħæ»¡": 2195,
      "æ¥": 2196,
      "èĻ½çĦ¶": 2197,
      "çĦ¶èĢĮ": 2198,
      "æĮīçħ§": 2199,
      "å½¢å¼ı": 2200,
      "OSS": 2201,
      "çļĦçŁ": 2202,
      "ç¼ĸåĨĻ": 2203,
      "éĢłæĪĲ": 2204,
      "äº²": 2205,
      "ä¸²": 2206,
      "ä»ĺ": 2207,
      "ort": 2208,
      "åºĵ": 2209,
      "ine": 2210,
      "éĵ¾": 2211,
      "åı¯ä»¥ä½¿çĶ¨": 2212,
      "åľ°åĮº": 2213,
      "pr": 2214,
      "åĲįç§°": 2215,
      "ore": 2216,
      "æĺ¯æĮĩ": 2217,
      "ä¸Ģæ¬¡": 2218,
      "å°Ħ": 2219,
      "æĥ¯": 2220,
      "à¸": 2221,
      "è¯ĹæŃĮ": 2222,
      "æ±½è½¦": 2223,
      "ä¸ĸ": 2224,
      "åıĤåĬł": 2225,
      "æī§": 2226,
      "å¤ļä¸ª": 2227,
      "èĲ¥éĶĢ": 2228,
      "åı¥è¯Ŀ": 2229,
      "åı¯ä»¥åľ¨": 2230,
      "çļĦæĮ": 2231,
      "èĤ¡": 2232,
      "Ġle": 2233,
      "æĢĿèĢĥ": 2234,
      "æĹ¥æľŁ": 2235,
      "æĸ°éĹ»": 2236,
      "è§īå¾Ĺ": 2237,
      "ä½¿å¾Ĺ": 2238,
      "èĻļ": 2239,
      "çļĦå»ºè®®": 2240,
      "åĤ¨": 2241,
      "å½Ĵ": 2242,
      "æĪĲåĳĺ": 2243,
      "**ï¼ļ": 2244,
      "åĪĽä½ľ": 2245,
      "her": 2246,
      "ä¼¤": 2247,
      "ĠR": 2248,
      "æĶ¹åĸĦ": 2249,
      "åģı": 2250,
      "é©¾": 2251,
      "ence": 2252,
      "æ£ĢæŁ¥": 2253,
      "äº®": 2254,
      "æĽ´å¥½çļĦ": 2255,
      "tep": 2256,
      "èĪĴéĢĤ": 2257,
      "age": 2258,
      "å²ģ": 2259,
      "ŀäºī": 2260,
      "éĢŁåº¦": 2261,
      "åĪĨäº«": 2262,
      "èĳĹåĲį": 2263,
      "éĢĤåºĶ": 2264,
      "è·Ł": 2265,
      "å¨ģ": 2266,
      "æĿ¡ä»¶": 2267,
      "æĦıè¯Ĩ": 2268,
      "åºĶå¯¹": 2269,
      "å¿ħé¡»": 2270,
      "æĵįä½ľ": 2271,
      "ction": 2272,
      "ä¸ĢçĽ´": 2273,
      "äº«åıĹ": 2274,
      "æ°´å¹³": 2275,
      "éĴĪ": 2276,
      "å½¢æĪĲ": 2277,
      "åı¯ä»¥è®©": 2278,
      "av": 2279,
      "åĪĽå»º": 2280,
      "ide": 2281,
      "op": 2282,
      "åĮ»åŃ¦": 2283,
      "é¦Ĩ": 2284,
      "æĹ¶åĢĻ": 2285,
      "æĸ¹åĲĳ": 2286,
      "çľł": 2287,
      "ç³ĸæŀľ": 2288,
      "æ¶ī": 2289,
      "ä¹łæĥ¯": 2290,
      "rom": 2291,
      "æĺ¯åľ¨": 2292,
      "ter": 2293,
      "å¤ıå¤©": 2294,
      "æ·±åº¦åŃ¦ä¹ł": 2295,
      "ç¨³": 2296,
      "çļĦçĶŁæ´»": 2297,
      "ĠL": 2298,
      "æ°ĶåĢĻåıĺåĮĸ": 2299,
      "æ»¡è¶³": 2300,
      "Ġ`": 2301,
      "num": 2302,
      "æ°´æŀľ": 2303,
      "ä½³": 2304,
      "ä¹ĺ": 2305,
      "çļĦå·¥ä½ľ": 2306,
      "å®¹æĺĵ": 2307,
      "æ´²": 2308,
      "åĨľ": 2309,
      "æİĮ": 2310,
      "çł´": 2311,
      "MOSS": 2312,
      "å°Ĩåħ¶": 2313,
      "å¸®æĪĳ": 2314,
      "çļĦæĬĢæľ¯": 2315,
      "é¢ĺçĽ®": 2316,
      "åľ¨åĮ»çĸĹ": 2317,
      "çļĦæĥħæĦŁ": 2318,
      "åĲĮæĹ¶ä¹Ł": 2319,
      "éĢģ": 2320,
      "ç§ĺ": 2321,
      "æĭħ": 2322,
      "çĸ«": 2323,
      "ult": 2324,
      "ä¼ĳ": 2325,
      "æµĭè¯ķ": 2326,
      "çļĦæĹ¶éĹ´": 2327,
      "ä¸Ńæĸĩ": 2328,
      "éĩİ": 2329,
      "å¿Ĺ": 2330,
      "åº§": 2331,
      "çĹĩ": 2332,
      "è°¢è°¢": 2333,
      "ä¸Ģé¦ĸ": 2334,
      "èī²çļĦ": 2335,
      "ind": 2336,
      "ä¾Ŀ": 2337,
      "ç»§": 2338,
      "ç¾İä¸½": 2339,
      "èĲ¥åħ»": 2340,
      "éĿĴ": 2341,
      "å·¨": 2342,
      "swer": 2343,
      "éļľ": 2344,
      "Ġåľ¨": 2345,
      "åĬŀ": 2346,
      "äººåĳĺ": 2347,
      "åķĨåĵģ": 2348,
      "å®ĥä»¬çļĦ": 2349,
      "åºķ": 2350,
      "èĹ": 2351,
      "æķ´ä¸ª": 2352,
      "å¡ĳ": 2353,
      "çĨŁ": 2354,
      "éĢı": 2355,
      "éĻ¢": 2356,
      "é«ĺæķĪ": 2357,
      "100": 2358,
      "åıĮ": 2359,
      "åĨ·": 2360,
      "çľĭåĪ°": 2361,
      "å¾ª": 2362,
      "çĤ¼": 2363,
      "âĢĶ": 2364,
      "åıįåºĶ": 2365,
      "Ġde": 2366,
      "ä¸Ģå®ļ": 2367,
      "èĥĮæĻ¯": 2368,
      "éħ¸": 2369,
      "ãĢĤ-": 2370,
      "åºĶçĶ¨ç¨ĭåºı": 2371,
      "çĮ®": 2372,
      "ĺè¦ģ": 2373,
      "end": 2374,
      "ç»¼": 2375,
      "è§ĤçĤ¹": 2376,
      "çļĦæ¯": 2377,
      "è·ĳ": 2378,
      "èĩªæĪĳ": 2379,
      "åħ³éĶ®è¯į": 2380,
      "__": 2381,
      "èĩªåĬ¨åĮĸ": 2382,
      "ä»į": 2383,
      "å®ĩ": 2384,
      "æ¯ıå¤©": 2385,
      "ç½Ĺ": 2386,
      "oc": 2387,
      "å°¼": 2388,
      "for": 2389,
      "imes": 2390,
      "é¼ĵåĬ±": 2391,
      "æ³ķå¾ĭ": 2392,
      "çī¹åĪ«": 2393,
      "Ġnot": 2394,
      "éħ±": 2395,
      "æıĲä¾ĽäºĨ": 2396,
      "----": 2397,
      "æĲŃ": 2398,
      "ä¸ºä»Ģä¹Ī": 2399,
      "å¯Ł": 2400,
      "æı¡": 2401,
      "æĦ¿": 2402,
      "çķĮ": 2403,
      "æ¼«": 2404,
      "çļĦæĥħåĨµ": 2405,
      "å¯¹è¯ĿåĨħå®¹": 2406,
      "å³": 2407,
      "åĳ¼åĲ¸": 2408,
      "èĮĥåĽ´": 2409,
      "æ²ŁéĢļ": 2410,
      "æ´Ĺ": 2411,
      "æ·»åĬł": 2412,
      "è¿Ļæ®µ": 2413,
      "äºĭæĥħ": 2414,
      "ä¸Ńå¿ĥ": 2415,
      "ç»ĦæĪĲ": 2416,
      "art": 2417,
      "çľ¼": 2418,
      "æ¯ĶèµĽ": 2419,
      "è®©æĪĳä»¬": 2420,
      "ç«¯": 2421,
      "Ġ'": 2422,
      "èĭ±è¯Ń": 2423,
      "çĦ¦": 2424,
      "èĩªçĶ±": 2425,
      "çļĦçł": 2426,
      "ure": 2427,
      "çĽĲ": 2428,
      "èģĶç½ĳ": 2429,
      "ä¸ŃæıĲåıĸ": 2430,
      "è·Ŀ": 2431,
      "Ġtr": 2432,
      "é¢Ĺ": 2433,
      "é¡º": 2434,
      "çļĦæ°´": 2435,
      "ag": 2436,
      "èĸ": 2437,
      "åŃĹç¬¦ä¸²": 2438,
      "Ġ9": 2439,
      "çļĦæĦŁ": 2440,
      "ill": 2441,
      "è®¨è®º": 2442,
      "ies": 2443,
      "å®ļæľŁ": 2444,
      "ä¾ĭåŃĲ": 2445,
      "é¡¾": 2446,
      "æŃ§": 2447,
      "æĶ¹è¿Ľ": 2448,
      "æī¿": 2449,
      "é¦Ī": 2450,
      "èĭ±æĸĩ": 2451,
      "æŁĲäºĽ": 2452,
      "æĽ¿": 2453,
      "é©¾é©¶": 2454,
      "æ¢¦": 2455,
      "èĢĮä¸Ķ": 2456,
      "ĠÃ": 2457,
      "ç¤¼": 2458,
      "æ½ľ": 2459,
      "èŃ¦": 2460,
      "æ··": 2461,
      "æł¡": 2462,
      "de": 2463,
      "çĿ¡": 2464,
      "åĲĪéĢĤ": 2465,
      "ob": 2466,
      "è®°å½ķ": 2467,
      "è®©æĪĳ": 2468,
      "æ¬¢è¿İ": 2469,
      "ap": 2470,
      "åĪĽæĦı": 2471,
      "æľīå¾Īå¤ļ": 2472,
      "çĽ®åīį": 2473,
      "çĽĸ": 2474,
      "éĢĤå½ĵ": 2475,
      "éĺ³åħī": 2476,
      "åıªæľī": 2477,
      "èĮ¶": 2478,
      "æĩ": 2479,
      "Ġ[": 2480,
      "ç»ıåİĨ": 2481,
      "æ¶īåıĬ": 2482,
      "æĦŁè°¢": 2483,
      "Ġ20": 2484,
      "ĠG": 2485,
      "ä¼¦": 2486,
      "ase": 2487,
      "Ġun": 2488,
      "åķĨä¸ļ": 2489,
      "çļĦç¤¾": 2490,
      "æľīäºĽ": 2491,
      "æĢ»ç»ĵ": 2492,
      "ç¥ŀç»ı": 2493,
      "ï¼ļ```": 2494,
      "ãĤ": 2495,
      "åıįé¦Ī": 2496,
      "åį«": 2497,
      "æľªæĿ¥çļĦ": 2498,
      "éĿł": 2499,
      "èį¯çī©": 2500,
      "print": 2501,
      "åħ¶æ¬¡": 2502,
      "Ġch": 2503,
      "åĲįåŃĹ": 2504,
      "ä¼½": 2505,
      "éĴ±": 2506,
      "ç»§ç»Ń": 2507,
      "æĹ¥å¸¸": 2508,
      "ç¢³": 2509,
      "ï¼ļ-": 2510,
      "éĶ»": 2511,
      "è§£åĨ³æĸ¹æ¡Ī": 2512,
      "è¿Ļä¸ªéĹ®é¢ĺ": 2513,
      "è¸": 2514,
      "éĶ»çĤ¼": 2515,
      "Ġse": 2516,
      "æıĲåĩº": 2517,
      "åĬĽéĩı": 2518,
      "ç¾İé£Ł": 2519,
      "ç½ĳç«Ļ": 2520,
      "åī©": 2521,
      "ç¹": 2522,
      "è´£ä»»": 2523,
      "éĤ®": 2524,
      "25": 2525,
      "æ´ŀ": 2526,
      "èĪª": 2527,
      "out": 2528,
      "éĺ¿": 2529,
      "ie": 2530,
      "æľīçĿĢ": 2531,
      "æ¨¡å¼ı": 2532,
      "æľºæŀĦ": 2533,
      "nd": 2534,
      "å¯»æ±Ĥ": 2535,
      "ç©ºæ°Ķ": 2536,
      "ä¸įéĶĻ": 2537,
      "æ»©": 2538,
      "ub": 2539,
      "æĸĩåŃ¦": 2540,
      "Ġk": 2541,
      "éĢĤéĩı": 2542,
      "åı£æĦŁ": 2543,
      "æīĭæľº": 2544,
      "åĽ½å®¶": 2545,
      "å°ļ": 2546,
      "å¹¸": 2547,
      "è¿ĽæŃ¥": 2548,
      "çİ°å®ŀ": 2549,
      "è¶³å¤Ł": 2550,
      "ust": 2551,
      "å°Ĭéĩį": 2552,
      "Ġus": 2553,
      "åĨ³å®ļ": 2554,
      "åıĬæĹ¶": 2555,
      "ĠO": 2556,
      "ľä¼½": 2557,
      "18": 2558,
      "åı¯ä»¥å¸®åĬ©æĤ¨": 2559,
      "é¥°": 2560,
      "æ·±åħ¥": 2561,
      "è¿Ļæĺ¯ä¸Ģä¸ª": 2562,
      "å®¶å±ħ": 2563,
      "éĢĶ": 2564,
      "ĠN": 2565,
      "è¿Ľä¸ĢæŃ¥": 2566,
      "erm": 2567,
      "é«ĺçļĦ": 2568,
      "æĶ¿çŃĸ": 2569,
      "ä¸įåı¯": 2570,
      "æ¤Ĵ": 2571,
      "Ġwor": 2572,
      "Ġqu": 2573,
      "åı¦å¤ĸ": 2574,
      "åį±": 2575,
      "çºª": 2576,
      "çī¹å®ļ": 2577,
      "è¯¾ç¨ĭ": 2578,
      "ç®±": 2579,
      "Ġ*": 2580,
      "Tom": 2581,
      "åįļ": 2582,
      "åįĬ": 2583,
      "éľĢè¦ģæ³¨æĦı": 2584,
      "çıŃ": 2585,
      "bo": 2586,
      "çļĦç¬": 2587,
      "åĽ°éļ¾": 2588,
      "åŃ¦ä¹łåĴĮ": 2589,
      "ä¸ĭæĿ¥": 2590,
      "çļĦä¸»è¦ģ": 2591,
      "åĭĩ": 2592,
      "ĠĠĊ": 2593,
      "çļĦçľ": 2594,
      "éĿ¢ä¸´": 2595,
      "æ¸©åº¦": 2596,
      "ä¹ĭåīį": 2597,
      "åĲĪçĲĨ": 2598,
      "åľ¨çº¿": 2599,
      "å¤§åĪ©": 2600,
      "å®ļä¹ī": 2601,
      "èĨ": 2602,
      "æī§è¡Į": 2603,
      ".\"": 2604,
      "ç¬¬äºĮ": 2605,
      "æĺİç¡®": 2606,
      "å¿ħè¦ģ": 2607,
      "æĪĳè®¤ä¸º": 2608,
      "å±Ģ": 2609,
      "æĪĳä»¬åºĶè¯¥": 2610,
      "ions": 2611,
      "ach": 2612,
      "åĪ¤æĸŃ": 2613,
      "èģļ": 2614,
      "ç«ŀäºī": 2615,
      "ä¼´": 2616,
      "åĨ²": 2617,
      "ï¼īï¼Į": 2618,
      "å®Ļ": 2619,
      "æľĢå¤§": 2620,
      "åĢĭ": 2621,
      "åı¯ä»¥å¸®åĬ©ä½ł": 2622,
      "çļĦæĸ¹å¼ı": 2623,
      "åľĨ": 2624,
      "åı«": 2625,
      "Ġat": 2626,
      "Ġsp": 2627,
      "è·³": 2628,
      "æŃ§è§Ĩ": 2629,
      "éĵ¶": 2630,
      "åĿı": 2631,
      "å¤ļæł·": 2632,
      "ial": 2633,
      "å¾Ħ": 2634,
      "çĸĳ": 2635,
      "è´ŁéĿ¢": 2636,
      "æ¶Īè´¹": 2637,
      "èĢģå¸Ī": 2638,
      "éĢĲæ¸Ĳ": 2639,
      "Ġsh": 2640,
      "æĲľ": 2641,
      "å®ĩå®Ļ": 2642,
      "çļĦæ³": 2643,
      "æ²³": 2644,
      "èĪ¬": 2645,
      "å±ķç¤º": 2646,
      "éģĵå¾·": 2647,
      "æľīæīĢ": 2648,
      "çĽ´æİ¥": 2649,
      "çļĦçĥ": 2650,
      "ç¬¦åĲĪ": 2651,
      "çĬ¶æĢģ": 2652,
      "è½¬æį¢": 2653,
      "Ġj": 2654,
      "urn": 2655,
      "æĤ¨éľĢè¦ģ": 2656,
      "çī©åĵģ": 2657,
      "ä½Ļ": 2658,
      "Ġnumber": 2659,
      "çļĦæķħäºĭ": 2660,
      "åį´": 2661,
      "uc": 2662,
      "times": 2663,
      "çĪ±æĥħ": 2664,
      "å®ĺ": 2665,
      "ike": 2666,
      "è¿Ķ": 2667,
      "æłĩåĩĨ": 2668,
      "çħ®": 2669,
      "åĵĪ": 2670,
      "æķĪçİĩåĴĮ": 2671,
      "èİ·åıĸ": 2672,
      "å®£": 2673,
      "ple": 2674,
      "åģ¥èº«": 2675,
      "ãĢĤ\"": 2676,
      "iz": 2677,
      "æĥħç»ª": 2678,
      "å¼ºè°ĥ": 2679,
      "çī©çĲĨ": 2680,
      "çīĪ": 2681,
      "ç©ºéĹ´": 2682,
      "ak": 2683,
      "åĪļ": 2684,
      "åĮĸåŃ¦": 2685,
      "æĴŃ": 2686,
      "å¥ĸ": 2687,
      "çĤĴ": 2688,
      "åĮĹäº¬": 2689,
      "are": 2690,
      "è¯´æĺİ": 2691,
      "ans": 2692,
      "èĥľ": 2693,
      "æİĴåºı": 2694,
      "**:": 2695,
      "è´Ńçī©": 2696,
      "ä¸¥éĩį": 2697,
      "æİ¨åĬ¨": 2698,
      "å¹»": 2699,
      "åĪ¶éĢł": 2700,
      "èĦĤ": 2701,
      "çĬ¶åĨµ": 2702,
      "Ġå°Ĩ": 2703,
      "çĻ¾": 2704,
      "æİĮæı¡": 2705,
      "ç³»åĪĹ": 2706,
      "ç¬ĳ": 2707,
      "æľīä¸Ģä¸ª": 2708,
      "ç¿»è¯ĳæĪĲ": 2709,
      "éĻĲåĪ¶": 2710,
      "æµģç¨ĭ": 2711,
      "è·Ŀç¦»": 2712,
      "éĻ¤äºĨ": 2713,
      "æĳĺè¦ģ": 2714,
      "æ³¨éĩį": 2715,
      "ame": 2716,
      "ok": 2717,
      "è´§": 2718,
      "çĳľä¼½": 2719,
      "å°ıæĹ¶": 2720,
      "éĴĪå¯¹": 2721,
      "è§ĦåĪĴ": 2722,
      "å¿Ĩ": 2723,
      "çĽĺ": 2724,
      "æĦıä¹ī": 2725,
      "è¿Ļä¸Ģ": 2726,
      "åŃ£èĬĤ": 2727,
      "éľ²": 2728,
      "æ±¤": 2729,
      "çĶľ": 2730,
      "ost": 2731,
      "å®ŀéªĮ": 2732,
      "çģ¯": 2733,
      "å¹¿åĳĬ": 2734,
      "æĶ¶éĽĨ": 2735,
      "ç»Ŀ": 2736,
      "æĮ¥": 2737,
      "åįĥ": 2738,
      "åĴĮåħ¶ä»ĸ": 2739,
      "äººç±»çļĦ": 2740,
      "æµ·æ´ĭ": 2741,
      "ç¹ģ": 2742,
      "åģľ": 2743,
      "çļĦæĬķ": 2744,
      "è´¡": 2745,
      "è¯Ńæ³ķ": 2746,
      "éĤ®ä»¶": 2747,
      "ä½łè®¤ä¸º": 2748,
      "ave": 2749,
      "ï¼īãĢĤ": 2750,
      "å®ł": 2751,
      "ä½łéľĢè¦ģ": 2752,
      "éĶħ": 2753,
      "éĢĻ": 2754,
      "è®¿": 2755,
      "put": 2756,
      "ical": 2757,
      "åĪĨéħį": 2758,
      "æİ¨å¹¿": 2759,
      "åĢĴ": 2760,
      "Ġme": 2761,
      "æİ¥åıĹ": 2762,
      "åĿĲ": 2763,
      "ell": 2764,
      "å®Ī": 2765,
      "ast": 2766,
      "æ¯Ĵ": 2767,
      "202": 2768,
      "è§Ĩè§ī": 2769,
      "è·µ": 2770,
      "æĬĺ": 2771,
      "act": 2772,
      "è°Ī": 2773,
      "éģµ": 2774,
      "çĦ¦èĻĳ": 2775,
      "è´¡çĮ®": 2776,
      "æĹłè®º": 2777,
      "Ġres": 2778,
      "èĽĭçĻ½": 2779,
      "çļĦçłĶ": 2780,
      "ç»´æĬ¤": 2781,
      "Ġen": 2782,
      "æł¸": 2783,
      "ang": 2784,
      "åŃ¸": 2785,
      "æ±ĩ": 2786,
      "è¡ĮæĺŁ": 2787,
      "åĹ": 2788,
      "éĵģ": 2789,
      "ä¹Łä¼ļ": 2790,
      "çļĦæĢĿ": 2791,
      "çļĦçĪ": 2792,
      "ç»¿èī²": 2793,
      "éģĹ": 2794,
      "æĢ¥": 2795,
      "åı³": 2796,
      "éĩįæĸ°": 2797,
      "çļĦå¤§": 2798,
      "åį³åı¯": 2799,
      "èĤĮ": 2800,
      "åŃĹæ¯į": 2801,
      "ãĢĤ\\": 2802,
      "å®ŀè·µ": 2803,
      "çļĦæı": 2804,
      "ich": 2805,
      "ä¹ħ": 2806,
      "é¾Ļ": 2807,
      "ä¿Ŀè¯ģ": 2808,
      "èĲ¨": 2809,
      "èĥ½éĩı": 2810,
      "ä½łä»¬": 2811,
      "æľīä¸Ģ": 2812,
      "çŃīé¢ĨåŁŁ": 2813,
      "ib": 2814,
      "çĥĪ": 2815,
      "å¼ķèµ·": 2816,
      "python": 2817,
      "è®©äºº": 2818,
      "çĽ¸ä¿¡": 2819,
      "çļĦåľ°æĸ¹": 2820,
      "å®łçī©": 2821,
      "æĦıåĳ³": 2822,
      "åĴĮæĸĩåĮĸ": 2823,
      "å®Įåħ¨": 2824,
      "æľĢä½³": 2825,
      "æĦŁè§ī": 2826,
      "çĽ¸äºĴ": 2827,
      "å·¥ç¨ĭ": 2828,
      "çļĦéľĢæ±Ĥ": 2829,
      "åįĪ": 2830,
      "æįŁ": 2831,
      "all": 2832,
      "ould": 2833,
      "è®²è¿°": 2834,
      "å·¦": 2835,
      "æĲľç´¢": 2836,
      "æŁĶ": 2837,
      "çİ¯å¢ĥä¿ĿæĬ¤": 2838,
      "æī©": 2839,
      "æĲŃéħį": 2840,
      "ç»ĨèĬĤ": 2841,
      "Ġbo": 2842,
      "å¡ĳæĸĻ": 2843,
      "é¥Ń": 2844,
      "å±ŀäºİ": 2845,
      "åºĶçĶ¨äºİ": 2846,
      "èĻļæĭŁ": 2847,
      "æĬĢæľ¯çļĦ": 2848,
      "äºĴåĬ¨": 2849,
      "è¿ĶåĽŀ": 2850,
      "å¥³æĢ§": 2851,
      "()": 2852,
      "éĿ©": 2853,
      "Ġfrom": 2854,
      "çº³": 2855,
      "æĢ»çļĦ": 2856,
      "è¾¾åĪ°": 2857,
      "ä¿Ŀåģ¥": 2858,
      "çĶ¨æĿ¥": 2859,
      "èī¯å¥½çļĦ": 2860,
      "ä½ľèĢħ": 2861,
      "ç£": 2862,
      "çļĦæ´": 2863,
      "é¾Ħ": 2864,
      "åŁ¹è®Ń": 2865,
      "çº¸": 2866,
      "çļĦæĥ³": 2867,
      "æ¯Ľ": 2868,
      "è§ĦåĪĻ": 2869,
      "åĨĽ": 2870,
      "ç»ıåħ¸": 2871,
      "æ£®": 2872,
      "çļĦå°ı": 2873,
      "éĢīé¡¹": 2874,
      "èĹı": 2875,
      "çĽ¸åºĶ": 2876,
      "è§£åĨ³éĹ®é¢ĺ": 2877,
      "äºĴèģĶç½ĳ": 2878,
      "åķĬ": 2879,
      "æĦıåĳ³çĿĢ": 2880,
      "ç¨³å®ļ": 2881,
      "fe": 2882,
      "æıĲåįĩ": 2883,
      "åĴ¨": 2884,
      "è¾Ĩ": 2885,
      "çī©ä½ĵ": 2886,
      "æĹ¶å°ļ": 2887,
      "ç»Ļä½ł": 2888,
      "çİĽ": 2889,
      "æĢ»çļĦæĿ¥è¯´": 2890,
      "èµı": 2891,
      "å¹¶åľ¨": 2892,
      "æĽ´å¥½åľ°çĲĨè§£": 2893,
      "his": 2894,
      "å¾Īå¥½": 2895,
      "æİĴæĶ¾": 2896,
      "æŃ£ç¡®çļĦ": 2897,
      "turn": 2898,
      "æ±ģ": 2899,
      "å¥ı": 2900,
      "éĿ¢ç§¯": 2901,
      "æ¸ħæĻ": 2902,
      "æĪĲéķ¿": 2903,
      "çģ¾": 2904,
      "è¡¨æĺİ": 2905,
      "åĴ¨è¯¢": 2906,
      "ç³ķ": 2907,
      "åħ°": 2908,
      "æĦŁåıĹ": 2909,
      "ç»ıå¸¸": 2910,
      "è¯Ħè®º": 2911,
      "åĢ¼å¾Ĺ": 2912,
      "æ¶²": 2913,
      "æľ«": 2914,
      "åħ¬åĽŃ": 2915,
      "å®īæİĴ": 2916,
      "è´µ": 2917,
      "èĢĲ": 2918,
      "åħ·ä½ĵçļĦ": 2919,
      "çĥ§": 2920,
      "è´¢åĬ¡": 2921,
      "Ġpl": 2922,
      "çĽ¸å¯¹": 2923,
      "Ġal": 2924,
      "çļĦå®īåħ¨": 2925,
      "èĤ¤": 2926,
      "å·ŀ": 2927,
      "çĶŁæ´»ä¸Ń": 2928,
      "åĨĻä½ľ": 2929,
      "æĹ¶éĹ´åĴĮ": 2930,
      "åħ¬åħ±": 2931,
      "è®¾ç½®": 2932,
      "æµĵ": 2933,
      "ä»įçĦ¶": 2934,
      "å¢ŀéķ¿": 2935,
      "æ··åĲĪ": 2936,
      "16": 2937,
      "å©ļ": 2938,
      "æ³³": 2939,
      "åĮĢ": 2940,
      "å½ĵåīį": 2941,
      "ä¸ļåĬ¡": 2942,
      "æĶ»": 2943,
      "ip": 2944,
      "one": 2945,
      "200": 2946,
      "..": 2947,
      "åĩıè½»": 2948,
      "æŀ¶": 2949,
      "åĽº": 2950,
      "åıĳæĮ¥": 2951,
      "åıĸå¾Ĺ": 2952,
      "æ®µèĲ½": 2953,
      "inal": 2954,
      "çļĦçĶµå½±": 2955,
      "æĿŁ": 2956,
      "Ġfo": 2957,
      "è¿½æ±Ĥ": 2958,
      "ä¼ļè®®": 2959,
      "åĲ¬èµ·æĿ¥": 2960,
      "éĨĴ": 2961,
      "çĭ¬çī¹çļĦ": 2962,
      "è¿Ļæĺ¯ä¸Ģ": 2963,
      "æķ°æį®åĪĨæŀĲ": 2964,
      "åĲİçļĦ": 2965,
      "çĩĥ": 2966,
      "æĥĬ": 2967,
      "ç»ĵåĲĪ": 2968,
      "èĦļ": 2969,
      "çļĦçłĶç©¶": 2970,
      "æķı": 2971,
      "ount": 2972,
      "çİ°è±¡": 2973,
      "):": 2974,
      "è§Ĩé¢ĳ": 2975,
      "ä»¥ä¸ĭæĺ¯ä¸Ģ": 2976,
      "éķ¿åº¦": 2977,
      "æĺ¯çĶ±": 2978,
      "éŀ": 2979,
      "è¿ŀæİ¥": 2980,
      "ime": 2981,
      "çľģ": 2982,
      "å¸¦æĿ¥äºĨ": 2983,
      "ack": 2984,
      "ç¤¾åĮº": 2985,
      "è®¢": 2986,
      "å¹¶ä¸į": 2987,
      "ç¾İåĳ³": 2988,
      "å³°": 2989,
      "åĪĨåĪ«": 2990,
      "æµģè¡Į": 2991,
      "æľīåĵªäºĽ": 2992,
      "çĶŁæĢģç³»ç»Ł": 2993,
      "Ġdo": 2994,
      "æ²ī": 2995,
      "ä¸Ģæ®µå¯¹è¯Ŀ": 2996,
      "ud": 2997,
      "ä¼ĺåĬ¿": 2998,
      "é¹": 2999,
      "çĶ¨çļĦ": 3000,
      "äººå·¥æĻºèĥ½çļĦ": 3001,
      "åĩºæĿ¥": 3002,
      "è¢ĭ": 3003,
      "æķ´æķ°": 3004,
      "Al": 3005,
      "å²Ľ": 3006,
      "æļ´": 3007,
      "è¯Ŀé¢ĺ": 3008,
      "åĬ³": 3009,
      "æĽ¾": 3010,
      "çļĦæĬķèµĦ": 3011,
      "åŃĺåĤ¨": 3012,
      "æĦī": 3013,
      "éĿ¢å¯¹": 3014,
      "Ġthis": 3015,
      "ç®ĢåįķçļĦ": 3016,
      "ä½įäºİ": 3017,
      "è¡¨éĿ¢": 3018,
      "ä¸įè¿ĩ": 3019,
      "æĬ½": 3020,
      "æĬ¥åĳĬ": 3021,
      "å¹´é¾Ħ": 3022,
      "åĨĴ": 3023,
      "çĬ¯": 3024,
      "Ġ||": 3025,
      "çķ¥": 3026,
      "çĽĳæµĭ": 3027,
      "èĿ": 3028,
      "è¾£": 3029,
      "çĶµè§Ĩ": 3030,
      "å¹¸ç¦ı": 3031,
      "Ġad": 3032,
      "æĥħåĨµä¸ĭ": 3033,
      "åı£åĳ³": 3034,
      "å¸ģ": 3035,
      "ä¸ĬæľĢ": 3036,
      "åıĤæķ°": 3037,
      "æİ¢è®¨": 3038,
      "åĩĢ": 3039,
      "æĸĩåĮĸåĴĮ": 3040,
      "è¿·": 3041,
      "ĠæĪĳ": 3042,
      "ç±į": 3043,
      "çĽ¸åħ³çļĦ": 3044,
      "ä»¤äºº": 3045,
      "æĺł": 3046,
      "Ġ12": 3047,
      "ile": 3048,
      "ä¸Ŀ": 3049,
      "äººçī©": 3050,
      "çļĦæĻº": 3051,
      "ary": 3052,
      "æ°¸": 3053,
      "11": 3054,
      "èķ": 3055,
      "éĢĴ": 3056,
      "åĲ¯": 3057,
      "åŃ¦æł¡": 3058,
      "æ©Ļ": 3059,
      "Ġpr": 3060,
      "äº¤æĺĵ": 3061,
      "çĹĽ": 3062,
      "åºĬ": 3063,
      "åŃ¤": 3064,
      "able": 3065,
      "èĤ¡ç¥¨": 3066,
      "èĳ±": 3067,
      "çīĻ": 3068,
      "ç¨ĭåº¦": 3069,
      "ç¼©": 3070,
      "åı¯æĮģç»Ńåıĳå±ķ": 3071,
      "æľĿ": 3072,
      "ç¼ĵè§£": 3073,
      "æķĳ": 3074,
      "è§Ĵèī²ä¿¡æģ¯": 3075,
      "ard": 3076,
      "ä¸ªæĢ§åĮĸ": 3077,
      "Ġper": 3078,
      "ç»©": 3079,
      "ear": 3080,
      "ç»ĺ": 3081,
      "çļĦåħ³éĶ®": 3082,
      "åºŁ": 3083,
      "å¤«": 3084,
      "èĮĦ": 3085,
      "è¡¨æł¼": 3086,
      "è¯ŃéŁ³è¯ĨåĪ«": 3087,
      "åĢĳ": 3088,
      "ĠStep": 3089,
      "å¾ªçİ¯": 3090,
      "åĨ¥": 3091,
      "çļĦå¤©æ°Ķ": 3092,
      "åĽ½éĻħ": 3093,
      "åĺ": 3094,
      "è³": 3095,
      "tal": 3096,
      "å®¡": 3097,
      "æ±ł": 3098,
      "è°±": 3099,
      "ç§Ģ": 3100,
      "éĩįå¤į": 3101,
      "æĹ¥æľ¬": 3102,
      "éĸ": 3103,
      "æĶ¾åľ¨": 3104,
      "è©": 3105,
      "åıĹæ¬¢è¿İ": 3106,
      "åĵªä¸ª": 3107,
      "çļĦæĢ§": 3108,
      "å¹³çŃī": 3109,
      "éŀĭ": 3110,
      "ç¥ŀç§ĺ": 3111,
      "çļĦæ°Ķ": 3112,
      "å§Ĩ": 3113,
      "åı¯ä»¥æł¹æį®": 3114,
      "çĽ¸åĲĮ": 3115,
      "bers": 3116,
      "æ¸ħæĻ°": 3117,
      "æłĩé¢ĺ": 3118,
      "å¤ªç©º": 3119,
      "æĪĲä¸ºäºĨ": 3120,
      "æĪĳå¾Ī": 3121,
      "çļĦæµ·": 3122,
      "çļĦä¸»é¢ĺ": 3123,
      "çĽ¸ä¼¼": 3124,
      "åĬ¨ä½ľ": 3125,
      "ä¸ŃæľĢ": 3126,
      "æĭĮ": 3127,
      "åľ¨æľªæĿ¥": 3128,
      "å¿ĺ": 3129,
      "æĹĭ": 3130,
      "Ġyour": 3131,
      "éĿŀå¸¸éĩįè¦ģçļĦ": 3132,
      "ç¥ŀç»ıç½ĳç»ľ": 3133,
      "åıĺéĩı": 3134,
      "èĥ¡": 3135,
      "é¢Ħç®Ĺ": 3136,
      "éĽª": 3137,
      "åĬ©æīĭ": 3138,
      "è¯ļ": 3139,
      "æ¨¡æĭŁ": 3140,
      "à°": 3141,
      "é¥¼": 3142,
      "æĿ¥èĩª": 3143,
      "æ¸ħæ´ģ": 3144,
      "çļĦæĢ»": 3145,
      "çľŁæŃ£": 3146,
      "ç§ĳåŃ¦å®¶": 3147,
      "ance": 3148,
      "çļĦæİ¨": 3149,
      "æĪĳéľĢè¦ģ": 3150,
      "è¿Ļåı¥è¯Ŀ": 3151,
      "è¯»èĢħ": 3152,
      "åģ¥åº·çļĦ": 3153,
      "60": 3154,
      "åĪĹåĩº": 3155,
      "æ¶¦": 3156,
      "åĳĪ": 3157,
      "çļĦæĥ³æ³ķ": 3158,
      "éķ¿æľŁ": 3159,
      "éĽ¶": 3160,
      "åħ¬å¼ı": 3161,
      "Ġint": 3162,
      "è¿ĺéľĢè¦ģ": 3163,
      "ĠÐ": 3164,
      "æĬĹ": 3165,
      "form": 3166,
      "æĸĩä»¶": 3167,
      "ç§°ä¸º": 3168,
      "ç»ĦåĲĪ": 3169,
      "éģĩåĪ°": 3170,
      "ĠU": 3171,
      "ç¥Ŀ": 3172,
      "å¸®åĬ©æĤ¨": 3173,
      "éĺ¶": 3174,
      "Ġinc": 3175,
      "è¸ª": 3176,
      "çĲĨè®º": 3177,
      "èĤ¥": 3178,
      "èĽĭçĻ½è´¨": 3179,
      "é«ĺåħ´": 3180,
      "è¯Ħä»·": 3181,
      "æĦıå¤§åĪ©": 3182,
      "ç¼ĸè¾ĳ": 3183,
      "ä¸ĢèĪ¬": 3184,
      "14": 3185,
      "çļĦé£İéĻ©": 3186,
      "å¹¶æıĲä¾Ľ": 3187,
      "éļıæľº": 3188,
      "è¿ĩåİ»": 3189,
      "ä¼ĳæģ¯": 3190,
      "éļıæĹ¶": 3191,
      "è¾ħ": 3192,
      "åŃ¦ä¼ļ": 3193,
      "å£°éŁ³": 3194,
      "æľ¬ä¹¦": 3195,
      "åĨ¥æĥ³": 3196,
      "å¥¥": 3197,
      "åīĤ": 3198,
      "çļĦçģ": 3199,
      "æīĢéľĢ": 3200,
      "åľ°æĸ¹": 3201,
      "iven": 3202,
      "rt": 3203,
      "ä½Ľ": 3204,
      "èģĬå¤©": 3205,
      "ring": 3206,
      "±ä¹Ĳ": 3207,
      "å®½": 3208,
      "åı¯éĿł": 3209,
      "åį·": 3210,
      "èĢĹ": 3211,
      "å¿«ä¹Ĳ": 3212,
      "æ¬§": 3213,
      "ï¼īï¼ļ": 3214,
      "çĽ´åĪ°": 3215,
      "é«ĺåº¦": 3216,
      "ĠJ": 3217,
      "çĶŁéķ¿": 3218,
      "row": 3219,
      "éŃĶ": 3220,
      "å¸¸è§ģçļĦ": 3221,
      "åı¯èĥ½æĺ¯": 3222,
      "éĩıåŃĲ": 3223,
      "çĶµèĦĳ": 3224,
      "ĠAI": 3225,
      "ress": 3226,
      "è°ģ": 3227,
      "çļĦçº": 3228,
      "ä¸ĵæ³¨": 3229,
      "å®ĥåı¯ä»¥": 3230,
      "çļĦç¨": 3231,
      "æĭ¿": 3232,
      "ord": 3233,
      "æ¸¸æ³³": 3234,
      "æ°§åĮĸ": 3235,
      "Bob": 3236,
      "èĢĮä¸įæĺ¯": 3237,
      "çļĦåİĨåı²": 3238,
      "è°ĥæŁ¥": 3239,
      "ä¸Ģåıª": 3240,
      "ä¸Ģæł·": 3241,
      "è°·": 3242,
      "app": 3243,
      "åĳ³éģĵ": 3244,
      "æļĹ": 3245,
      "é£ŁæĿĲ": 3246,
      "å®£ä¼ł": 3247,
      "è¹": 3248,
      "æĹ¶æľŁ": 3249,
      "åĲĦä¸ª": 3250,
      "æĸ¹ä¾¿": 3251,
      "çİ©å®¶": 3252,
      "æĶ¾åħ¥": 3253,
      "åı¤ä»£": 3254,
      "çļĦæĳ": 3255,
      "æ£Ģæµĭ": 3256,
      "up": 3257,
      "è§¦": 3258,
      "æĻºèĥ½å®¶å±ħ": 3259,
      "å¤ıåŃ£": 3260,
      "ä½¿åħ¶": 3261,
      "çŃ¾": 3262,
      "æŃĮæĽ²": 3263,
      "è²": 3264,
      "çļĦåŃ¦ä¹ł": 3265,
      "æ±ī": 3266,
      "èī¾": 3267,
      "æĸ¹ç¨ĭ": 3268,
      "åĬĽçļĦ": 3269,
      "Ġtotal": 3270,
      "æ·±åĪ»": 3271,
      "åĩī": 3272,
      "å°½ç®¡": 3273,
      "æ³¡": 3274,
      "entence": 3275,
      "XX": 3276,
      "åĿļæĮģ": 3277,
      "(\"": 3278,
      "æıĲä¾Ľä¸ĢäºĽ": 3279,
      "è®¤è¯Ĩ": 3280,
      "æĸĩåŃĹ": 3281,
      "è¿Ľåħ¥": 3282,
      "æħ§": 3283,
      "åī©ä¸ĭ": 3284,
      "ä¹³": 3285,
      "çĶŁåŃĺ": 3286,
      "æ¬£": 3287,
      "åĲ¬è¯´": 3288,
      "ä¾Ĩ": 3289,
      "ç±»ä¼¼": 3290,
      "è¿ĩåº¦": 3291,
      "æ¶Īè´¹èĢħ": 3292,
      "ä¸ĸçºª": 3293,
      "çļĦç¼": 3294,
      "å¼ĥ": 3295,
      "æį·": 3296,
      "éģį": 3297,
      "äºĨä¸ĢäºĽ": 3298,
      "éĤ£äºĽ": 3299,
      "æĢ§èĥ½": 3300,
      "æ¹¿": 3301,
      "ire": 3302,
      "éĽĨä¸Ń": 3303,
      "ï¼ĮâĢľ": 3304,
      "å·§åħĭ": 3305,
      "é¸¡èĽĭ": 3306,
      "æĸĩæľ¬ä¸Ń": 3307,
      "è¿Ļå°Ĩ": 3308,
      "æ°Ķä½ĵ": 3309,
      "å¥Ĺ": 3310,
      "ä¸»ä¹ī": 3311,
      "ä¿®æĶ¹": 3312,
      "æľĹ": 3313,
      "ä¹İ": 3314,
      "åĨħéĥ¨": 3315,
      "çļĦçŁ¥": 3316,
      "åĪĨä¸º": 3317,
      "åĢ¾": 3318,
      "éĥ¨çĶµå½±": 3319,
      "æķ°æį®çļĦ": 3320,
      "å·®å¼Ĥ": 3321,
      "èĽĭç³ķ": 3322,
      "çĤº": 3323,
      "To": 3324,
      "åĿĩåĮĢ": 3325,
      "çķª": 3326,
      "åĲĪéĢĤçļĦ": 3327,
      "è®¿éĹ®": 3328,
      "æ£®æŀĹ": 3329,
      "Ġdet": 3330,
      "ne": 3331,
      "40": 3332,
      "è½»æĿ¾": 3333,
      "åĨ¬": 3334,
      "åĸĿ": 3335,
      "æĶ¯ä»ĺ": 3336,
      "èĤª": 3337,
      "èĦĤèĤª": 3338,
      "çļĦéĩįè¦ģæĢ§": 3339,
      "éº¦": 3340,
      "åŁºåĽł": 3341,
      "å¤§éĩıçļĦ": 3342,
      "æĪĳå°Ĩ": 3343,
      "ä¸Ģç»Ħ": 3344,
      "ange": 3345,
      "åĽ¢éĺŁæĪĲåĳĺ": 3346,
      "ome": 3347,
      "ä¹¦ç±į": 3348,
      "çļĦåĨħå®¹": 3349,
      "åľ¨ä¸Ģèµ·": 3350,
      "',": 3351,
      "æĹ¨": 3352,
      "Ġequ": 3353,
      "è½®": 3354,
      "ace": 3355,
      "æ»¡æĦı": 3356,
      "æ¥¼": 3357,
      "ä»¥ä¸ĭåĩłä¸ª": 3358,
      "æĮĩå¯¼": 3359,
      "æĿ¥æºĲ": 3360,
      "çļĦæ´»": 3361,
      "è§Ĥä¼Ĺ": 3362,
      "çĶŁæĪĲä¸Ģæ®µ": 3363,
      "xed": 3364,
      "çĻ»": 3365,
      "ãĥ": 3366,
      "Ġman": 3367,
      "çµ": 3368,
      "ry": 3369,
      "èĳĹåĲįçļĦ": 3370,
      "æĽ´å¥½åľ°äºĨè§£": 3371,
      "åħħåĪĨ": 3372,
      "ia": 3373,
      "èĥģ": 3374,
      "Ġlike": 3375,
      "ç§»åĬ¨": 3376,
      "é¢Ĩå¯¼": 3377,
      "ä»Ģä¹Īæĺ¯": 3378,
      "æĢ»æĺ¯": 3379,
      "å®¶äºº": 3380,
      "åı¯ä»¥æıĲé«ĺ": 3381,
      "æ¦Ĥå¿µ": 3382,
      "æĸ°é²ľ": 3383,
      "åĳ¨åĽ´": 3384,
      "å¡Ķ": 3385,
      "å¨ģèĥģ": 3386,
      "è¿Ĳè¡Į": 3387,
      "çļĦæ¦Ĥ": 3388,
      "çļĦæĶ¯": 3389,
      "ĠY": 3390,
      "å°¤": 3391,
      "é¢Ħéĺ²": 3392,
      "å¯¹æĸ¹": 3393,
      "Ġval": 3394,
      "åĴĮç¤¾ä¼ļ": 3395,
      "è¯·åĳĬè¯īæĪĳ": 3396,
      "æİ¥ä¸ĭæĿ¥": 3397,
      "å°Ĩä»¥ä¸ĭ": 3398,
      "å¤§åŃ¦": 3399,
      "æľīæ²¡æľī": 3400,
      "ä¿¡ä»»": 3401,
      "å¤§å®¶": 3402,
      "æĢ§åĪ«": 3403,
      "çļĦçĪ±": 3404,
      "éĢ»": 3405,
      "Alice": 3406,
      "æŃ»": 3407,
      "åĩºäºĨ": 3408,
      "Ġim": 3409,
      "åıĺæļĸ": 3410,
      "ç¾İåħĥ": 3411,
      "ific": 3412,
      "é¡µ": 3413,
      "å·¥ä¸ļ": 3414,
      "æ£Ĵ": 3415,
      "ax": 3416,
      "ark": 3417,
      "ä»ĸäºº": 3418,
      "ç½ª": 3419,
      "æ®Ĭ": 3420,
      "çıį": 3421,
      "Ġ/": 3422,
      "çļĦä¸Ģä¸ª": 3423,
      "çļĦå¥½": 3424,
      "åĮºåŁŁ": 3425,
      "å¹³æĸ¹": 3426,
      "çļĦç¬¬": 3427,
      "yp": 3428,
      "ç²¾ç¥ŀ": 3429,
      "çĿ¡çľł": 3430,
      "\",": 3431,
      "è¯įæ±ĩ": 3432,
      "æĢĿç»´": 3433,
      "åĶ±": 3434,
      "åıªæĺ¯": 3435,
      "è§Ī": 3436,
      "å¦Ī": 3437,
      "å°½åı¯èĥ½": 3438,
      "æĬ±": 3439,
      "å¿Ļ": 3440,
      "ä¸°å¯ĮçļĦ": 3441,
      "çīĽå¥¶": 3442,
      "é¡ºåºı": 3443,
      "çĨĬ": 3444,
      "Ġ15": 3445,
      "Ġhave": 3446,
      "è§Ĥå¯Ł": 3447,
      "åĴĮåıĳå±ķ": 3448,
      "åĪĨåŃĲ": 3449,
      "è¡¥": 3450,
      "æĥħèĬĤ": 3451,
      "å°±ä¸ļ": 3452,
      "Ġanswer": 3453,
      "ä¼ĺç§Ģ": 3454,
      "äººçĶŁ": 3455,
      "éĵħ": 3456,
      "èĩªåĬ¨é©¾é©¶": 3457,
      "æĦŁåıĹåĪ°": 3458,
      "çļĦæłĩ": 3459,
      "åĵģè´¨": 3460,
      "åĸľæ¬¢çļĦ": 3461,
      "å·§åħĭåĬĽ": 3462,
      "åıĳå¸ĥ": 3463,
      "é»ĳæ´ŀ": 3464,
      "çº¢èī²": 3465,
      "ä»¿": 3466,
      ").": 3467,
      "rou": 3468,
      "ĠĠĊĠĠ": 3469,
      "å¼łä¸ī": 3470,
      "éĢ»è¾ĳ": 3471,
      "å¯¹çİ¯å¢ĥ": 3472,
      "æķĻåŃ¦": 3473,
      "ft": 3474,
      "æľīä¸ĢäºĽ": 3475,
      "è½½": 3476,
      "æ¯ıä¸ªäººéĥ½": 3477,
      "æľīæķĪåľ°": 3478,
      "æĦŁåħ´è¶£": 3479,
      "çĶ³": 3480,
      "ĠçļĦ": 3481,
      "çļĦçĭ": 3482,
      "å¹ħ": 3483,
      "çī¹æ®Ĭ": 3484,
      "Ġi": 3485,
      "æĻĤ": 3486,
      "åĮºåĿĹ": 3487,
      "Ġsu": 3488,
      "åľ¨ä¸Ģä¸ª": 3489,
      "æĺ¾ç¤º": 3490,
      "çļĦçİ¯å¢ĥ": 3491,
      "Ġcont": 3492,
      "çĶļ": 3493,
      "å®«": 3494,
      "hat": 3495,
      "åģĩè®¾": 3496,
      "ä¸ĬéĿ¢": 3497,
      "æĻ¯çĤ¹": 3498,
      "æĭ¼": 3499,
      "å¨±ä¹Ĳ": 3500,
      "ç¡¬": 3501,
      "çĤİ": 3502,
      "Ġprov": 3503,
      "Ġhas": 3504,
      "ä¸Ģå®¶": 3505,
      "Ġall": 3506,
      "å½¢è±¡": 3507,
      "åĭķ": 3508,
      "æĺ¯ä¸ŃåĽ½": 3509,
      "åĪº": 3510,
      "æ»ĳ": 3511,
      "æ¸©æļĸ": 3512,
      "è¶ħè¿ĩ": 3513,
      "æĢĿæĥ³": 3514,
      "çķªèĮĦ": 3515,
      "å°º": 3516,
      "è¯·ä½ł": 3517,
      "åıĺå¾ĹæĽ´åĬł": 3518,
      "æĻºèĥ½åĮĸ": 3519,
      "æīĢè¿°": 3520,
      "å¹´çļĦ": 3521,
      "èĩ³å°ĳ": 3522,
      "åİļ": 3523,
      "ç¾İå¥½çļĦ": 3524,
      "è´¹çĶ¨": 3525,
      "du": 3526,
      "çļĦèĥ½åĬĽ": 3527,
      "å½¼": 3528,
      "ite": 3529,
      "ä¹ı": 3530,
      "å¼ĢæĶ¾": 3531,
      "å»¶": 3532,
      "Ģæľī": 3533,
      "æľµ": 3534,
      "ç¨İ": 3535,
      "çķħ": 3536,
      "æī®": 3537,
      "åľ¨åĮ»çĸĹé¢ĨåŁŁ": 3538,
      "çļĦæīĭ": 3539,
      "ç«¥": 3540,
      "boxed": 3541,
      "17": 3542,
      "ily": 3543,
      "å°ģ": 3544,
      "æ½ľåľ¨": 3545,
      "æĥł": 3546,
      "æĸĹ": 3547,
      "å®Ĺ": 3548,
      "çļĦç½": 3549,
      "ä¼ĺåħĪ": 3550,
      "ç»ıè¿ĩ": 3551,
      "éĻĦ": 3552,
      "çļĦä½¿çĶ¨": 3553,
      "ç±»åĪ«": 3554,
      "åĽłä¸ºå®ĥ": 3555,
      "å°¾": 3556,
      "èī¯å¥½": 3557,
      "ç»¼ä¸Ĭ": 3558,
      "åĴĮæ²»çĸĹ": 3559,
      "åı¯ä»¥çĶ¨äºİ": 3560,
      "èľľ": 3561,
      "éĵħç¬Ķ": 3562,
      "çļĦç³": 3563,
      "å°į": 3564,
      "ä¸Ģä¸ªäºº": 3565,
      "éĿŀå¸¸éĩįè¦ģ": 3566,
      "æ¦": 3567,
      "çĶŁç´ł": 3568,
      "çī¹å®ļçļĦ": 3569,
      "å¤§å°ı": 3570,
      "æ´¾": 3571,
      "åı¯èĥ½éľĢè¦ģ": 3572,
      "æŁ¥è¯¢": 3573,
      "åĪĨæŀĲåĴĮ": 3574,
      "å½¢çĬ¶": 3575,
      "æĭį": 3576,
      "å¤©ç©º": 3577,
      "çŃīæĸ¹å¼ı": 3578,
      "ä¼ĺçĤ¹": 3579,
      "èĥŀ": 3580,
      "æģ¶": 3581,
      "ass": 3582,
      "éĹŃ": 3583,
      "ä¸ªèĭ¹æŀľ": 3584,
      "çļĦçŁ¥è¯Ĩ": 3585,
      "åĨįçĶŁ": 3586,
      "ond": 3587,
      "è´¦": 3588,
      "ä¸Ģæ¬¾": 3589,
      "çļĦæ±": 3590,
      "æĽ´æĸ°": 3591,
      "çļĦæĬĢèĥ½": 3592,
      "çĶļèĩ³": 3593,
      "çļĦæĹ¶åĢĻ": 3594,
      "¹é¥": 3595,
      "ated": 3596,
      "çİī": 3597,
      "æĿ°": 3598,
      "æıĲåĪ°": 3599,
      "èĴľ": 3600,
      "¹é¥ª": 3601,
      "13": 3602,
      "æŁĲä¸ª": 3603,
      "åĴĮå®īåħ¨": 3604,
      "ong": 3605,
      "èĤĮèĤī": 3606,
      "åĴĮæĶ¯æĮģ": 3607,
      "æĪĳåľ¨": 3608,
      "æĲħ": 3609,
      "åĮºåĿĹéĵ¾": 3610,
      "We": 3611,
      "Ð°": 3612,
      "ĠIn": 3613,
      "ĠĠĠĠĠ": 3614,
      "åıĸåĨ³": 3615,
      "çĶŁæ´»æĸ¹å¼ı": 3616,
      "Ġgo": 3617,
      "éĥģ": 3618,
      "åıĸåĨ³äºİ": 3619,
      "é¡¿": 3620,
      "çļĦæĮĳæĪĺ": 3621,
      "ç§įç±»": 3622,
      "çŁŃè¯Ń": 3623,
      "æķ°æį®éĽĨ": 3624,
      "äº¤äºĴ": 3625,
      "å®ŀæĸ½": 3626,
      "çļĦçĹ": 3627,
      "åįıä½ľ": 3628,
      "Ġwhich": 3629,
      "æĹ¶ä»£": 3630,
      "è½¦è¾Ĩ": 3631,
      "own": 3632,
      "nswer": 3633,
      "éĺ²æŃ¢": 3634,
      "çĽ®çļĦ": 3635,
      "è£ħé¥°": 3636,
      "åįł": 3637,
      "ep": 3638,
      "cri": 3639,
      "çļĦéŁ³ä¹Ĳ": 3640,
      "ä¿Ŀéļľ": 3641,
      "çļĦç©": 3642,
      "èĩªè¡Į": 3643,
      "èī²å½©": 3644,
      "åľ°çĤ¹": 3645,
      "å¾ĹåĪ°äºĨ": 3646,
      "é¥®æĸĻ": 3647,
      "åĴĮåºĶçĶ¨": 3648,
      "éĥ½ä¼ļ": 3649,
      "æĿĳ": 3650,
      "æĪ·å¤ĸ": 3651,
      "çĵ¶": 3652,
      "Ġso": 3653,
      "çļĦé£Łçī©": 3654,
      "è½¬æį¢ä¸º": 3655,
      "èªī": 3656,
      "ç¡®å®ŀ": 3657,
      "æĬ¥éģĵ": 3658,
      "æĥ³æ³ķ": 3659,
      "å¹ķ": 3660,
      "æľīè¶£çļĦ": 3661,
      "lp": 3662,
      "åĨľä¸ļ": 3663,
      "çļĦçĥŃ": 3664,
      "åīįæĻ¯": 3665,
      "åĽŀæĶ¶": 3666,
      "èĪ¹": 3667,
      "åĴĮåĪĨæŀĲ": 3668,
      "è§Ĵåº¦": 3669,
      "å¤§æ°Ķ": 3670,
      "24": 3671,
      "çļĦæ´»åĬ¨": 3672,
      "\\[": 3673,
      "æĺİå¤©": 3674,
      "é£ŀè¡Į": 3675,
      "èĩªä¿¡": 3676,
      "ç¿Ĵ": 3677,
      "ç»¼ä¸ĬæīĢè¿°": 3678,
      "æł¹æį®ç»Ļå®ļçļĦ": 3679,
      "æľĥ": 3680,
      "èĻ«": 3681,
      "çļĦæīĢæľī": 3682,
      "éĿ¢åĮħ": 3683,
      "æĶ¶åħ¥": 3684,
      "æĽ´åĩĨç¡®": 3685,
      "åħ¨çĲĥåıĺæļĸ": 3686,
      "ä»·åĢ¼è§Ĥ": 3687,
      "æİī": 3688,
      "éº»": 3689,
      "è¡Ĺ": 3690,
      "Ġwhe": 3691,
      "å±ķçİ°": 3692,
      "æīĵå¼Ģ": 3693,
      "çĿ£": 3694,
      "Ġä½¿çĶ¨": 3695,
      "ä¸įçŁ¥éģĵ": 3696,
      "å¹¶å°Ĩ": 3697,
      "æĳĦåħ¥": 3698,
      "æĲħæĭĮ": 3699,
      "ick": 3700,
      "åľ¨å®¶": 3701,
      "èĤ´": 3702,
      "ä¸Ģå¤©": 3703,
      "è®°å¿Ĩ": 3704,
      "ç§įæĹı": 3705,
      "èµŀ": 3706,
      "éĻĪ": 3707,
      "æĪĳæĺ¯": 3708,
      "ake": 3709,
      "èĥ½åĲ¦": 3710,
      "ise": 3711,
      "Ġass": 3712,
      "çļĦåģ¥åº·": 3713,
      "åĵ²": 3714,
      "æ°Ķæ¸©": 3715,
      "æ¹ĸ": 3716,
      "ä¸Ĭåįĩ": 3717,
      "ren": 3718,
      "ify": 3719,
      "çľĭèµ·æĿ¥": 3720,
      "ç¾İå¥½": 3721,
      "çļĦæĭ": 3722,
      "èĦ±": 3723,
      "æµªè´¹": 3724,
      "),": 3725,
      "å«": 3726,
      "æĪĳä»¬å°Ĩ": 3727,
      "è§Ħå®ļ": 3728,
      "çļĦè¡Įä¸º": 3729,
      "åĮ»çĸĹä¿Ŀåģ¥": 3730,
      "èº«ä½ĵåģ¥åº·": 3731,
      "æĶ»åĩ»": 3732,
      "å¯Ĩçłģ": 3733,
      "ä¿ĿæĬ¤çİ¯å¢ĥ": 3734,
      "æľºåĪ¶": 3735,
      "äºĭå®ŀ": 3736,
      "Ġexp": 3737,
      "çļĦæĮĩ": 3738,
      "80": 3739,
      "çļĦç²": 3740,
      "éª¨": 3741,
      "åİŁçĲĨ": 3742,
      "çļĦæĻºèĥ½": 3743,
      "æ¶īåıĬåĪ°": 3744,
      "æĪĸåħ¶ä»ĸ": 3745,
      "äººå·¥æĻºèĥ½åľ¨": 3746,
      "åĲįè¯į": 3747,
      "cul": 3748,
      "æ¡£": 3749,
      "åŁ¹åħ»": 3750,
      "åħ¨éĿ¢": 3751,
      "èĭ¦": 3752,
      "éªĳ": 3753,
      "ç¶": 3754,
      "çļĦæĸĩæľ¬": 3755,
      "çŃīäºİ": 3756,
      "Ġwas": 3757,
      "ç»Ĩèĥŀ": 3758,
      "éĵ¶è¡Į": 3759,
      "ĠâĢľ": 3760,
      "å·¦åı³": 3761,
      "æĪĲåĪĨ": 3762,
      "å¤ļçļĦ": 3763,
      "å¥ĭ": 3764,
      "çĪ±å¥½": 3765,
      "çļĦæ·": 3766,
      "ç§ĳå¹»": 3767,
      "åİĺ": 3768,
      "ä¸İåħ¶ä»ĸ": 3769,
      "åĳĪçİ°": 3770,
      "æķ¬": 3771,
      "çıł": 3772,
      "ish": 3773,
      "æģĲ": 3774,
      "çİĽä¸½": 3775,
      "def": 3776,
      "éªĮè¯ģ": 3777,
      "å®Įæķ´": 3778,
      "å°¤åħ¶": 3779,
      "âĢĻ": 3780,
      "é»ĺ": 3781,
      "çļĦæ²»": 3782,
      "è´Ŀ": 3783,
      "éĢĤå½ĵçļĦ": 3784,
      "Ġcl": 3785,
      "çļĦç¤¾ä¼ļ": 3786,
      "æĿ¥å®ŀçİ°": 3787,
      "è¿Ľå±ķ": 3788,
      "æĸ¹éĿ¢çļĦ": 3789,
      "ä¸įæĸŃåıĳå±ķ": 3790,
      "é»İ": 3791,
      "ç¼ĸåĨĻä¸Ģä¸ª": 3792,
      "çļĦæŃĮ": 3793,
      "ition": 3794,
      "è¿¹": 3795,
      "åĴĮæĮĳæĪĺ": 3796,
      "è´¥": 3797,
      "ç¬¬ä¸ī": 3798,
      "ĠV": 3799,
      "æİĪ": 3800,
      "èļ": 3801,
      "ĽåĽ´": 3802,
      "éĢĢ": 3803,
      "èĢ³": 3804,
      "è¯·æıĲä¾Ľ": 3805,
      "çĴ": 3806,
      "ç»ĵæĿŁ": 3807,
      "ç»´çĶŁç´ł": 3808,
      "çº½": 3809,
      ":**": 3810,
      "éĹ®é¢ĺçļĦ": 3811,
      "ä¸Ĭä¸ĭ": 3812,
      "ç»¼åĲĪ": 3813,
      "Ġhelp": 3814,
      "æľīè®¸å¤ļ": 3815,
      "ä¹ŁéľĢè¦ģ": 3816,
      "çī¹èī²": 3817,
      "Ġneed": 3818,
      "In": 3819,
      "å¥¹çļĦ": 3820,
      "æī®æ¼Ķ": 3821,
      "Ġwill": 3822,
      "èº«å¿ĥ": 3823,
      "èĩªä¸»": 3824,
      "åı¯ä»¥éĢīæĭ©": 3825,
      "åı¯ä»¥å¸®åĬ©æĪĳä»¬": 3826,
      "ä¼łæĴŃ": 3827,
      "æī°": 3828,
      "è§Ħå¾ĭ": 3829,
      "æľºåĻ¨åŃ¦ä¹łç®Ĺæ³ķ": 3830,
      "æľĢéĩįè¦ģçļĦ": 3831,
      "æģĴ": 3832,
      "èĵĿèī²": 3833,
      "èµĸ": 3834,
      "ãĢģãĢĬ": 3835,
      "ĊĠ": 3836,
      "çĽ®çļĦåľ°": 3837,
      "åŃ¤çĭ¬": 3838,
      "æĺ¯ä¸Ģä½į": 3839,
      "çļĦæ¸©": 3840,
      "åĪĽå»ºä¸Ģä¸ª": 3841,
      "æĤ¦": 3842,
      "æľŁéĹ´": 3843,
      "çļĦä»»åĬ¡": 3844,
      "è§Ħæ¨¡": 3845,
      "éľĩ": 3846,
      "çĬ¬": 3847,
      "è¿Ļé¦ĸ": 3848,
      "Ġfun": 3849,
      "ä¸ºæĪĳ": 3850,
      "list": 3851,
      "æŁ¥çľĭ": 3852,
      "é¡¶": 3853,
      "ä»°": 3854,
      "èĭı": 3855,
      "æĻºæħ§": 3856,
      "ĠÃĹ": 3857,
      "èħ¿": 3858,
      "æĭĽ": 3859,
      "Ġeach": 3860,
      "å¡«": 3861,
      "æľĢæĸ°": 3862,
      "ect": 3863,
      "å®ľ": 3864,
      "åĪĨå¸ĥ": 3865,
      "å¸ĮæľĽè¿ĻäºĽ": 3866,
      "æ±Ł": 3867,
      "å¼±": 3868,
      "äº§åĵģçļĦ": 3869,
      "æ¬£èµı": 3870,
      "çĶ²": 3871,
      "è´Łè´£": 3872,
      "éķľ": 3873,
      "åħ±æľī": 3874,
      "è¡£æľį": 3875,
      "æĺŁçĲĥ": 3876,
      "åįļçī©": 3877,
      "æĪ¿éĹ´": 3878,
      "è·¨": 3879,
      "åĬ¨åĬĽ": 3880,
      "éĥ¨éĹ¨": 3881,
      "æł·çļĦ": 3882,
      "åĴĮæľįåĬ¡": 3883,
      "å»ºè®¾": 3884,
      "è®©ä½ł": 3885,
      "åĲ«ä¹ī": 3886,
      "åħ·å¤ĩ": 3887,
      "ç¤ºä¾ĭ": 3888,
      "çļĦæĻ¯": 3889,
      "Ġapp": 3890,
      "Ġab": 3891,
      "åĵ¥": 3892,
      "ç®Ģæ´ģ": 3893,
      "åı¦ä¸Ģä¸ª": 3894,
      "æĺ¯å¤ļå°ĳ": 3895,
      "éĽħ": 3896,
      "çļĦåı¥åŃĲ": 3897,
      "åį±éĻ©": 3898,
      "hes": 3899,
      "âĢĶâĢĶ": 3900,
      "é£ŁçĶ¨": 3901,
      "åı¯ä»¥å°Ĩ": 3902,
      "ä¸»äºº": 3903,
      "çŃĶæ¡Īæĺ¯": 3904,
      "è½¬åĮĸ": 3905,
      "çļĦçĽ®æłĩ": 3906,
      "è®¾æĸ½": 3907,
      "åħ¬æŃ£": 3908,
      "åħ¬éĩĮ": 3909,
      "ãĢģâĢľ": 3910,
      "çļĦç»ĵæŀľ": 3911,
      "ä¸ľè¥¿": 3912,
      "ng": 3913,
      "éĢ²": 3914,
      "åĿ¦": 3915,
      "æ³ķè§Ħ": 3916,
      "å¯¸": 3917,
      "çĭ¬ç«ĭ": 3918,
      "Ð¾": 3919,
      "çļĦæ¯Ķ": 3920,
      "å¦Ļ": 3921,
      "è¯Ńåı¥": 3922,
      "äºĪ": 3923,
      "æĽ´å®¹æĺĵ": 3924,
      "))": 3925,
      "è´ŁéĿ¢å½±åĵį": 3926,
      "çļĦæ¸¸": 3927,
      "æĢĢ": 3928,
      "åŃĲçļĦ": 3929,
      "è¿Ľè¡ĮåĪĨç±»": 3930,
      "äº§çĶŁäºĨ": 3931,
      "é¡¾å®¢": 3932,
      "å®¤åĨħ": 3933,
      "è¡¨æ¼Ķ": 3934,
      "ç¼ºä¹ı": 3935,
      "ign": 3936,
      "è¿Ļéĥ¨çĶµå½±": 3937,
      "ations": 3938,
      "åĪ©çĽĬ": 3939,
      "æľĢå¥½": 3940,
      "åĽŀçŃĶéĹ®é¢ĺ": 3941,
      "å°½éĩı": 3942,
      "å¤ªéĺ³èĥ½": 3943,
      "å¯¹æīĭ": 3944,
      "Ġsum": 3945,
      "è¯ģæĺİ": 3946,
      "çļĦæ²»çĸĹ": 3947,
      "èıľèĤ´": 3948,
      "ä¾¿åĪ©": 3949,
      "ç¬¬ä¸Ģ": 3950,
      "çļĦè¯ĹæŃĮ": 3951,
      "ä¸Ĭæµ·": 3952,
      "åĨ²çªģ": 3953,
      "99": 3954,
      "è¿Ļä¸¤ä¸ª": 3955,
      "åı¯åĨįçĶŁ": 3956,
      "åĩĨç¡®æĢ§": 3957,
      "çļĦç«": 3958,
      "èģĺ": 3959,
      "åĴĮè°": 3960,
      "500": 3961,
      "é»Ħèī²": 3962,
      "å¢Ļ": 3963,
      "å¯¿": 3964,
      "åĲ«æľī": 3965,
      "çļĦç½ĳ": 3966,
      "å¤§èĩªçĦ¶": 3967,
      "åĴĮä¸į": 3968,
      "çľŁçļĦ": 3969,
      "çłĶåıĳ": 3970,
      "ä¹īè¯į": 3971,
      "éļ¾ä»¥": 3972,
      "wo": 3973,
      "å®ŀæĹ¶": 3974,
      "Ġreturn": 3975,
      "ä»ĸä»¬çļĦå¯¹è¯ĿåĨħå®¹": 3976,
      "çļĦç©º": 3977,
      "åı¯ä»¥ä¸º": 3978,
      "ç¿°": 3979,
      "ç¾İä¸½çļĦ": 3980,
      "åıĤèĢĥ": 3981,
      "Ġno": 3982,
      "åīįå¾Ģ": 3983,
      "ates": 3984,
      "çĥŁ": 3985,
      "æ¾": 3986,
      "æĻļä¸Ĭ": 3987,
      "ãĢĭãĢģãĢĬ": 3988,
      "ä¼¦çĲĨ": 3989,
      "port": 3990,
      "ä¸ĸçķĮä¸ĬæľĢ": 3991,
      "ä¸įæĸŃåľ°": 3992,
      "ava": 3993,
      "æĸĩç«łä¸Ń": 3994,
      "çªĹ": 3995,
      "âĢĿãĢģâĢľ": 3996,
      "åģ¶": 3997,
      "è¯ģæį®": 3998,
      "åģ¥åº·é¥®é£Ł": 3999,
      "ç¢İ": 4000,
      "NA": 4001,
      "èĦ¸": 4002,
      "åħŃ": 4003,
      "æ¶µ": 4004,
      "åĵªéĩĮ": 4005,
      "æľīæķĪçļĦ": 4006,
      "å§¿": 4007,
      "çļĦéĢīæĭ©": 4008,
      "åĨħå¿ĥ": 4009,
      "éĿŀå¸¸æĦŁè°¢": 4010,
      "æ¡Į": 4011,
      "éľĢæ±ĤåĴĮ": 4012,
      "çľĭçľĭ": 4013,
      "éľĢè¦ģæ³¨æĦıçļĦæĺ¯": 4014,
      "åĲįä¸º": 4015,
      "å¼¹": 4016,
      "è¾ħåĬ©": 4017,
      "æĪĳä¹Ł": 4018,
      "åĸľå¥½": 4019,
      "çļĦæĶ¯æĮģ": 4020,
      "çĵľ": 4021,
      "åĵ²åŃ¦": 4022,
      "èĭĹ": 4023,
      "çļĦç¥": 4024,
      "åĢŁ": 4025,
      "å¾Ĺåĩº": 4026,
      "åı¯èĥ½ä¼ļå¯¼èĩ´": 4027,
      "æıĲéĨĴ": 4028,
      "«èĲ¨": 4029,
      "Ġsol": 4030,
      "ä¾ĽåºĶ": 4031,
      "ask": 4032,
      "çļĦæķ°éĩı": 4033,
      "ä¹ĭå¤ĸ": 4034,
      "à¥": 4035,
      "å°ıæĺİæľī": 4036,
      "llow": 4037,
      "çº½çº¦": 4038,
      "æĹ¢": 4039,
      "Ġpos": 4040,
      "æķ°ä¸º": 4041,
      "å®īè£ħ": 4042,
      "ç±»åŀĭçļĦ": 4043,
      "çļĦæ²ŁéĢļ": 4044,
      "Ġif": 4045,
      "å½¼æŃ¤": 4046,
      "äºĭçī©": 4047,
      "äºĶä¸ª": 4048,
      "çĹĩçĬ¶": 4049,
      "ens": 4050,
      "çº¦ç¿°": 4051,
      "Ġac": 4052,
      "çļĦåİŁåĽł": 4053,
      "Ġmore": 4054,
      "éĢıæĺİ": 4055,
      "com": 4056,
      "çļĦåħ·ä½ĵ": 4057,
      "åı¯ä»¥è¢«": 4058,
      "èµĦéĩĳ": 4059,
      "æł¹æį®ä»¥ä¸ĭ": 4060,
      "æķ¢": 4061,
      "çļĦåıĺåĮĸ": 4062,
      "æª": 4063,
      "çł´åĿı": 4064,
      "åĨĴéĻ©": 4065,
      "éĹ²": 4066,
      "å±ĭ": 4067,
      "çļĦä¸ĢäºĽ": 4068,
      "irst": 4069,
      "ther": 4070,
      "çľŁå®ŀ": 4071,
      "ç§ĭå¤©": 4072,
      "æĹ¨åľ¨": 4073,
      "åŁºéĩĳ": 4074,
      "çĶ¨æĪ·çļĦ": 4075,
      "æĸ¼": 4076,
      "åĮĸåĴĮ": 4077,
      "å¸®åĬ©ä½ł": 4078,
      "çļĦæ®": 4079,
      "çĪ¶": 4080,
      "èĴ¸": 4081,
      "åģıå¥½": 4082,
      "ä¹ĭåĲİ": 4083,
      "è®ºæĸĩ": 4084,
      "èİĵ": 4085,
      "äºĨè®¸å¤ļ": 4086,
      "Ã©": 4087,
      "łéģĵ": 4088,
      "çŃīéĹ®é¢ĺ": 4089,
      "æ³°": 4090,
      "Ġpo": 4091,
      "å·¨å¤§": 4092,
      "åĪĩæĪĲ": 4093,
      "åºĨ": 4094,
      "éĤ£éĩĮ": 4095,
      "ç»ķ": 4096,
      "çģ¾å®³": 4097,
      "çĶŁæĪĲä¸Ģé¦ĸ": 4098,
      "å·´é»İ": 4099,
      "èķī": 4100,
      "éļĶ": 4101,
      "æĺ¯ä¸ĢåĲį": 4102,
      "åį«çĶŁ": 4103,
      "èį£": 4104,
      "Ġâ": 4105,
      "åħ¶ä¸ŃçļĦ": 4106,
      "å¿ħè¦ģçļĦ": 4107,
      "çĽĳçĿ£": 4108,
      "èħĲ": 4109,
      "çļĦåŁºæľ¬": 4110,
      "åįļçī©é¦Ĩ": 4111,
      "çļĦè¿ĩç¨ĭ": 4112,
      "æī¾åĩº": 4113,
      "å¦Ĥä½ķåľ¨": 4114,
      "äººæ°ĳ": 4115,
      "è¹Ī": 4116,
      "ays": 4117,
      "åľ£": 4118,
      "ĠK": 4119,
      "å£®": 4120,
      "å¹´è½»çļĦ": 4121,
      "Ġfollow": 4122,
      "æī¹": 4123,
      "ç¾¤ä½ĵ": 4124,
      "ä»Ķ": 4125,
      "éĹª": 4126,
      "Ġla": 4127,
      "éĩįè§Ĩ": 4128,
      "éħĴåºĹ": 4129,
      "Ġ100": 4130,
      "è°ĥåĳ³": 4131,
      "Ġfind": 4132,
      "æĮĩçļĦæĺ¯": 4133,
      "Ġ30": 4134,
      "çļĦåŁºç¡Ģ": 4135,
      "åĴĮç®¡çĲĨ": 4136,
      "å´": 4137,
      "ous": 4138,
      "è´¨éĩıåĴĮ": 4139,
      "ä¹¡": 4140,
      "ç»ıçĲĨ": 4141,
      "è¶³çĲĥ": 4142,
      "å¤ªéĺ³ç³»": 4143,
      "ermine": 4144,
      "é¦Ļèķī": 4145,
      "èĪŀè¹Ī": 4146,
      "ç»Łè®¡": 4147,
      "éľĢè¦ģèĢĥèĻĳ": 4148,
      "çļĦçĿ": 4149,
      "Ġsentence": 4150,
      "æķ°æį®åĴĮ": 4151,
      "æĪĲå°±": 4152,
      "å®ŀä½ĵ": 4153,
      "ru": 4154,
      "æĺĵäºİ": 4155,
      "ä»İèĢĮæıĲé«ĺ": 4156,
      "æľĢé«ĺ": 4157,
      "ail": 4158,
      "æķ°çļĦ": 4159,
      "çļĦæ³ķ": 4160,
      "ä¸ªç³ĸæŀľ": 4161,
      "æĤ¨å¥½": 4162,
      "ä¸ŃçļĦåºĶçĶ¨": 4163,
      "éł": 4164,
      "éģµå®Ī": 4165,
      "alcul": 4166,
      "æīĵåį°": 4167,
      "åıĸä»£": 4168,
      "ç²Ĵ": 4169,
      "è¯º": 4170,
      "èĩªè¡Įè½¦": 4171,
      "çĹħæ¯Ĵ": 4172,
      "å®¶åħ·": 4173,
      "æ·±è¿ľ": 4174,
      "åĬłå¯Ĩ": 4175,
      "èº«ä»½": 4176,
      "çĤ¸": 4177,
      "ĠåĴĮ": 4178,
      "çļĦæ¨": 4179,
      "å®ĥæĺ¯": 4180,
      "èĦı": 4181,
      "åŃ¸ç¿Ĵ": 4182,
      "åİ¨": 4183,
      "éĺµ": 4184,
      "çĥ¹é¥ª": 4185,
      "ä¹Łæľī": 4186,
      "èĢĮæĺ¯": 4187,
      "æµ·æ»©": 4188,
      "çļĦæİªæĸ½": 4189,
      "çļĦäº§åĵģ": 4190,
      "Ġ#": 4191,
      "çİ¯å¢ĥæ±¡æŁĵ": 4192,
      "èĥ½åĬĽåĴĮ": 4193,
      "æİĴåĪĹ": 4194,
      "çĸ²": 4195,
      "Ġadd": 4196,
      "åįģåĪĨ": 4197,
      "ä¿ĿéĻ©": 4198,
      "è®¤çľŁ": 4199,
      "èĩªèº«": 4200,
      "è¯įè¯Ń": 4201,
      "è¿Ŀ": 4202,
      "å·Ŀ": 4203,
      "å·¥ç¨ĭå¸Ī": 4204,
      "ä»ª": 4205,
      "è¿ħ": 4206,
      "Ġbut": 4207,
      "ä¸ºæĤ¨æıĲä¾Ľ": 4208,
      "éĴ¢": 4209,
      "cl": 4210,
      "ph": 4211,
      "æĽ´å¿«": 4212,
      "çĽĳç®¡": 4213,
      "åľ¨äºİ": 4214,
      "ä¸ŃæıĲåıĸåĩº": 4215,
      "çļĦäºĭæĥħ": 4216,
      "red": 4217,
      "å¤±åİ»": 4218,
      "å¥³åŃ©": 4219,
      "çĹħäºº": 4220,
      "sq": 4221,
      "å½¢å®¹": 4222,
      "ps": 4223,
      "åįĸ": 4224,
      "å¤§çº¦": 4225,
      "è¶³å¤ŁçļĦ": 4226,
      "Ðµ": 4227,
      "åį³ä½¿": 4228,
      "æĪĳåĸľæ¬¢": 4229,
      "ç¯®": 4230,
      "ç®ĢçŁŃ": 4231,
      "å¦ĤæŃ¤": 4232,
      "Ġcomp": 4233,
      "çļĦçŁŃ": 4234,
      "éķĩ": 4235,
      "åı¯ä»¥æıĲä¾Ľ": 4236,
      "å¿ĥåĴĮ": 4237,
      "çļĦæĸ°": 4238,
      "å¾Īæľī": 4239,
      "ces": 4240,
      "der": 4241,
      "èĳ¡": 4242,
      "çĶµè¯Ŀ": 4243,
      "å½¢çļĦ": 4244,
      "ra": 4245,
      "åħ±äº«": 4246,
      "ä¸īè§Ĵ": 4247,
      "æ½®": 4248,
      "æķĻå¸Ī": 4249,
      "ä¸Ĭä¸ĭæĸĩ": 4250,
      "Ø§": 4251,
      "æľŁå¾ħ": 4252,
      "è¢«è®¤ä¸º": 4253,
      "æ³¨æĦıåĬĽ": 4254,
      "èĬĤçº¦": 4255,
      "é½": 4256,
      "Ch": 4257,
      "çī©çĲĨåŃ¦": 4258,
      "èĲĦ": 4259,
      "èĳ¡èĲĦ": 4260,
      "è¡ĵ": 4261,
      "ä¾Ŀèµĸ": 4262,
      "åĴĮå»ºè®®": 4263,
      "å±ı": 4264,
      "sum": 4265,
      "çļĦæ¼": 4266,
      "çĽĽ": 4267,
      "ä½łæĺ¯": 4268,
      "¸æĵ": 4269,
      "çĶµåŃĲéĤ®ä»¶": 4270,
      "åı¯èĥ½å¯¼èĩ´": 4271,
      "Ġgiven": 4272,
      "åºıåĪĹ": 4273,
      "çļĦæ¶": 4274,
      "æ·¡": 4275,
      "çļĦçĿ¡": 4276,
      "æ¸ħåįķ": 4277,
      "ä½łè§īå¾Ĺ": 4278,
      "å¯¹äººç±»": 4279,
      "åĢĴåħ¥": 4280,
      "æĺİçĻ½": 4281,
      "æīĢæľīçļĦ": 4282,
      "ov": 4283,
      "ata": 4284,
      "ä¿¡åı·": 4285,
      "éĺ¶æ®µ": 4286,
      "ptions": 4287,
      "å¯¹è±¡": 4288,
      "éģĩåĪ°äºĨ": 4289,
      "å¯Ĵ": 4290,
      "ï¼ļ\"": 4291,
      "ä¸ĵå®¶": 4292,
      "åĪĨæĪĲ": 4293,
      "å¹«": 4294,
      "å¿ł": 4295,
      "ç¾İçļĦ": 4296,
      "åĵģç§į": 4297,
      "æīĺ": 4298,
      "Ġhow": 4299,
      "Ġte": 4300,
      "åĪĽä¸ļ": 4301,
      "çļĦç¼ĸ": 4302,
      "åħĭæľį": 4303,
      "åı¯åĨįçĶŁèĥ½æºĲ": 4304,
      "åĮ¹": 4305,
      "æµ®": 4306,
      "äº¿": 4307,
      "erse": 4308,
      "åłĤ": 4309,
      "ä¾µ": 4310,
      "åıĺæĪĲ": 4311,
      "çī©ç§į": 4312,
      "çºł": 4313,
      "åħħè¶³": 4314,
      "orre": 4315,
      "ç´§æĢ¥": 4316,
      "é¼ł": 4317,
      "åħįçĸ«": 4318,
      "å¹³åĿĩåĢ¼": 4319,
      "è¦Ĩ": 4320,
      "æĦıæĢĿ": 4321,
      "èıľåĵģ": 4322,
      "ä¸ºä½ł": 4323,
      "åľ¨è¿Ļ": 4324,
      "èĬĤå¥ı": 4325,
      "åħīçº¿": 4326,
      "åı¯èĥ½çļĦ": 4327,
      "æĸĩæ¡Ī": 4328,
      "çļĦæŃ¥": 4329,
      "æŃ£å¸¸": 4330,
      "å°±åı¯ä»¥": 4331,
      "çĶµæ±ł": 4332,
      "åĲĮäºĭ": 4333,
      "å¼ºçĥĪ": 4334,
      "Ġform": 4335,
      "çģµæ´»": 4336,
      "per": 4337,
      "åĭĩæ°Ķ": 4338,
      "çļĦæ½": 4339,
      "æįķ": 4340,
      "åĦ¿ç«¥": 4341,
      "åºĶè¯¥æĺ¯": 4342,
      "åīª": 4343,
      "è¯·ç»ĻæĪĳ": 4344,
      "çļĦæ®µ": 4345,
      "çŃīå¾ħ": 4346,
      "åĴĮè°Ĳ": 4347,
      "çļĦçĿ¡çľł": 4348,
      "å®ĹæķĻ": 4349,
      "åĩºèī²": 4350,
      "Ġro": 4351,
      "ble": 4352,
      "æİĺ": 4353,
      "èĩ³åħ³": 4354,
      "ents": 4355,
      "çļ®èĤ¤": 4356,
      "æīĢåľ¨": 4357,
      "åĨł": 4358,
      "Ġam": 4359,
      "æĺ¨": 4360,
      "è®¤çŁ¥": 4361,
      "å£¤": 4362,
      "æĺ¯åĲ¦æľī": 4363,
      "è¿Ļæ¬¾": 4364,
      "åĢº": 4365,
      "çĿĽ": 4366,
      "çļĦç²¾": 4367,
      "éĩįéĩı": 4368,
      "æ¡Ĩ": 4369,
      "çļĦæĥħåĨµä¸ĭ": 4370,
      "å¹«åĬ©": 4371,
      "èİī": 4372,
      "my": 4373,
      "ä»¥ä¸Ĭæĺ¯": 4374,
      "è´´": 4375,
      "éĩįçĤ¹": 4376,
      "ä¼łéĢĴ": 4377,
      "çĽ¸åºĶçļĦ": 4378,
      "so": 4379,
      "è·ĳæŃ¥": 4380,
      "åħ¬å¹³": 4381,
      "âĢ¦": 4382,
      "æĦīå¿«": 4383,
      "å®ģ": 4384,
      "åįķä½į": 4385,
      "**.": 4386,
      "æľĢå¥½çļĦ": 4387,
      "ä¼ĺæĥł": 4388,
      "èĢħçļĦ": 4389,
      "ç¢į": 4390,
      "è·Łè¸ª": 4391,
      "åİŁå§ĭ": 4392,
      "çļĦä¸Ģéĥ¨åĪĨ": 4393,
      "é¢ĨåŁŁä¸Ń": 4394,
      "åħ«": 4395,
      "ĠThis": 4396,
      "æŃ£éĿ¢": 4397,
      "çĲĨè§£åĴĮ": 4398,
      "èĮĥåĽ´åĨħ": 4399,
      "ci": 4400,
      "Ġfunction": 4401,
      "å¾Īå¤§": 4402,
      "æĬĢæľ¯åĴĮ": 4403,
      "æĽ¾ç»ı": 4404,
      "èĤº": 4405,
      "éĢīæĭ©éĢĤåĲĪ": 4406,
      "äººä»¬çļĦ": 4407,
      "çļĦæıĲ": 4408,
      "è¿ĻæĦıåĳ³çĿĢ": 4409,
      "æ©ĻåŃĲ": 4410,
      "Ġover": 4411,
      "ç¬¬ä¸Ģä¸ª": 4412,
      "éŃĶæ³ķ": 4413,
      "we": 4414,
      "åĿĢ": 4415,
      "ä¸¦": 4416,
      "èį·": 4417,
      "ä½¿çĶ¨çļĦ": 4418,
      "æŀĦå»º": 4419,
      "ä¸Ĭè¿°": 4420,
      "les": 4421,
      "ä½łåľ¨": 4422,
      "åĵģå°Ŀ": 4423,
      "ç§Ł": 4424,
      "çļĦæĦŁè§ī": 4425,
      "äººä½ĵ": 4426,
      "èģª": 4427,
      "éĶĢåĶ®é¢Ŀ": 4428,
      "åĶĲ": 4429,
      "åĲĪçī©": 4430,
      "å»ºè®®æĤ¨": 4431,
      "ff": 4432,
      "ink": 4433,
      "ä¸¤ç§į": 4434,
      "åĪ°è¾¾": 4435,
      "ä½ĵéĩį": 4436,
      "ç´§å¼ł": 4437,
      "æĪĲç»©": 4438,
      "äººå£«": 4439,
      "å®¤æ°Ķä½ĵ": 4440,
      "çº¤": 4441,
      "åĨįæ¬¡": 4442,
      "å®¢æľį": 4443,
      "çļĦç¤¾äº¤": 4444,
      "åħĪçĶŁ": 4445,
      "èĸĦ": 4446,
      "\\]": 4447,
      "ract": 4448,
      "åľŁå£¤": 4449,
      "ç»´æĮģ": 4450,
      "åĲ¹": 4451,
      "ç¼ºçĤ¹": 4452,
      "çļĦæł¸": 4453,
      "ä¸ĢäºĽåħ³äºİ": 4454,
      "æĪĳä»¬çļĦçĶŁæ´»": 4455,
      "èľĤ": 4456,
      "ä¹ĭå¤Ħ": 4457,
      "è¿ª": 4458,
      "åħ¬ä¼Ĺ": 4459,
      "åıĳæĺİ": 4460,
      "21": 4461,
      "åĪĨç»Ļ": 4462,
      "¢å¤į": 4463,
      "çĻĮ": 4464,
      "æľ¬æĸĩ": 4465,
      "éĿŀå¸¸å¥½": 4466,
      "åĵº": 4467,
      "æķ´ä½ĵ": 4468,
      "åŁºäºİä»¥ä¸ĭ": 4469,
      "ä½ĨæĪĳ": 4470,
      "æ³ķåĽ½": 4471,
      "cript": 4472,
      "Ġlist": 4473,
      "æķ£æŃ¥": 4474,
      "çļĦæ¨¡": 4475,
      "45": 4476,
      "æĥ³è±¡": 4477,
      "Ġpre": 4478,
      "åİĺç±³": 4479,
      "è§ĦèĮĥ": 4480,
      "éĽ·": 4481,
      "åı¯ä»¥èĢĥèĻĳ": 4482,
      "éĺ»": 4483,
      "èĭ±åĽ½": 4484,
      "çļĦæĥħç»ª": 4485,
      "å¼Ĥå¸¸": 4486,
      "2021": 4487,
      "ç»ĵè®º": 4488,
      "éģİ": 4489,
      "ç´«": 4490,
      "æĮĩæłĩ": 4491,
      "éģµå¾ª": 4492,
      "ual": 4493,
      "éĿŀå¸¸æľī": 4494,
      "æĦŁåĴĮ": 4495,
      "å¹¶æ²¡æľī": 4496,
      "æĽ¿æį¢": 4497,
      "à¦": 4498,
      "èıĮ": 4499,
      "åĲī": 4500,
      "æİ¨çĲĨ": 4501,
      "é¢ĦæĬ¥": 4502,
      "ible": 4503,
      "å¿ĥæĥħ": 4504,
      "é¢ĨåŁŁçļĦ": 4505,
      "é«Ķ": 4506,
      "å±ħæ°ĳ": 4507,
      "Ġresp": 4508,
      "åĮĻ": 4509,
      "æīĭæ®µ": 4510,
      "èĻļæĭŁçİ°å®ŀ": 4511,
      "åº¦çļĦ": 4512,
      "Ġem": 4513,
      "ä½ľä¸ºä¸Ģä¸ª": 4514,
      "ram": 4515,
      "ree": 4516,
      "éĻĨ": 4517,
      "å½±åĥı": 4518,
      "Ġà¤": 4519,
      "ï¼ŁâĢĿ": 4520,
      "çļĦæ®µèĲ½": 4521,
      "æĹ¶åħī": 4522,
      "åħħæ»¡äºĨ": 4523,
      "åł¡": 4524,
      "Ġprovide": 4525,
      "æĺİæĺ¾": 4526,
      "éĻ¤ä»¥": 4527,
      "åŀĥåľ¾åĪĨç±»": 4528,
      "çļĦæıı": 4529,
      "éĢļå¸¸ä¼ļ": 4530,
      "ç¡®è®¤": 4531,
      "ä¼łç»ŁçļĦ": 4532,
      "é£İæĻ¯": 4533,
      "orrect": 4534,
      "çĺ": 4535,
      "æ°ı": 4536,
      "äº¡": 4537,
      "Ġspec": 4538,
      "æıĴ": 4539,
      "å°ıåŃ¦": 4540,
      "å°ıæĿİ": 4541,
      "æİªæĸ½æĿ¥": 4542,
      "ç§¯æŀģçļĦ": 4543,
      "çŁ¥åĲį": 4544,
      "æıĲåĪ°äºĨ": 4545,
      "ä½łæľīä»Ģä¹Ī": 4546,
      "ove": 4547,
      "æĪĺäºī": 4548,
      "çļĦæ¯ı": 4549,
      "è§Ĩä¸º": 4550,
      "è£¤": 4551,
      "åĴĮæķ°æį®": 4552,
      "åıĹä¼Ĺ": 4553,
      "åĬłéĢŁ": 4554,
      "åĶ¯": 4555,
      "åĴĮæĥħæĦŁ": 4556,
      "èĢĥè¯ķ": 4557,
      "ç¤¾ä¼ļçļĦ": 4558,
      "å·¨å¤§çļĦ": 4559,
      "åĬ¨è¯į": 4560,
      "çļĦæŀ": 4561,
      "æĪĲæŀľ": 4562,
      "ç´¯": 4563,
      "çĪĨ": 4564,
      "Ġinto": 4565,
      "èģªæĺİ": 4566,
      "çļĦè®¾è®¡": 4567,
      "è§£çŃĶ": 4568,
      "åıĬåħ¶": 4569,
      "å§ĵ": 4570,
      "æĿĢ": 4571,
      "åĪ¸": 4572,
      "Ġout": 4573,
      "æĬĢæľ¯æĿ¥": 4574,
      "æ¶ĪèĢĹ": 4575,
      "çļĦæĦıæĢĿ": 4576,
      "igh": 4577,
      "çļĦä»·æł¼": 4578,
      "åĩºè¡Į": 4579,
      "æł¼å¼ı": 4580,
      "ä¸ĭåĪĹ": 4581,
      "çļĦè¿ĩç¨ĭä¸Ń": 4582,
      "æĺŁæľŁ": 4583,
      "ä¸ªæĢ§åĮĸçļĦ": 4584,
      "æķ°ç»Ħ": 4585,
      "åĢį": 4586,
      "åħĶ": 4587,
      "æıĲä¾ĽçļĦ": 4588,
      "åĵºä¹³": 4589,
      "çŁ¿": 4590,
      "é¸£": 4591,
      "çļĦæ¦Ĥå¿µ": 4592,
      "å¼ķåĬĽ": 4593,
      "çķĻä¸ĭ": 4594,
      "éĩİçĶŁ": 4595,
      "ĠãĢĬ": 4596,
      "ĠÃ·": 4597,
      "æľĢå¤§çļĦ": 4598,
      "å¿ĥæĢģ": 4599,
      "ath": 4600,
      "åı¥åŃĲä¸Ń": 4601,
      "æĢķ": 4602,
      "äºĴçĽ¸": 4603,
      "æĹ©ä¸Ĭ": 4604,
      "sqrt": 4605,
      "éĢĥ": 4606,
      "éķ¿æĹ¶éĹ´": 4607,
      "ä»¥æıĲé«ĺ": 4608,
      "æ·ĭ": 4609,
      "çĪ½": 4610,
      "é¸¡èĤī": 4611,
      "æĽ¿ä»£": 4612,
      "åŁĥ": 4613,
      "çĲ´": 4614,
      "Ġvalue": 4615,
      "çŃīåĽłç´ł": 4616,
      "è¢«å¹¿æ³Ľ": 4617,
      "è°Ĭ": 4618,
      "çļĦæ·±": 4619,
      "ĠSt": 4620,
      "å®ĮæĪĲä¸Ģæ®µå¯¹è¯Ŀ": 4621,
      "å¤ıæĹ¥": 4622,
      "åŁºäºİä»¥ä¸ĭè§Ĵèī²ä¿¡æģ¯": 4623,
      "çı¾": 4624,
      "çļĦæİĴ": 4625,
      "åŁºäºİä»¥ä¸ĭè§Ĵèī²ä¿¡æģ¯å®ĮæĪĲä¸Ģæ®µå¯¹è¯Ŀ": 4626,
      "äººå·¥æĻºèĥ½çļĦåıĳå±ķ": 4627,
      "åĪºæ¿Ģ": 4628,
      "èĲĿ": 4629,
      "èĦī": 4630,
      "Ġnew": 4631,
      "Ġdes": 4632,
      "æµªæ¼«": 4633,
      "å¡ŀ": 4634,
      "çĶŁæĪĲä¸Ģæ®µä»ĸä»¬çļĦå¯¹è¯ĿåĨħå®¹": 4635,
      "æĸĩæĺİ": 4636,
      "çļĦä¸Ģç§į": 4637,
      "å¿½": 4638,
      "è¢«ç§°ä¸º": 4639,
      "æŃī": 4640,
      "çļĦæ½ľ": 4641,
      "ä¸įè¶³": 4642,
      "ä»ĸåľ¨": 4643,
      "åİĭåĬĽåĴĮ": 4644,
      "ä¼ļå¯¹": 4645,
      "è¯Ńè¨Ģæ¨¡åŀĭ": 4646,
      "æ´Ľ": 4647,
      "ä»¥ä¸ĭæĺ¯ä¸Ģä¸ª": 4648,
      "æĬ«èĲ¨": 4649,
      "éĩĬæĶ¾": 4650,
      "èĬĿ": 4651,
      "çļĦæŃ£": 4652,
      "çĽĳæİ§": 4653,
      "ä¸Ģå®ļçļĦ": 4654,
      "èģĮä½į": 4655,
      "çļĦæ£": 4656,
      "ä»ĸä»¬ä¹ĭéĹ´çļĦ": 4657,
      "ä¸ģ": 4658,
      "æģ¢å¤į": 4659,
      "ç¬¦åı·": 4660,
      "æķ°åŃ¦é¢ĺ": 4661,
      "æ¸łéģĵ": 4662,
      "90": 4663,
      "çĶŁæĪĲä¸Ģç¯ĩ": 4664,
      "æĤł": 4665,
      "å¤§åŀĭ": 4666,
      "éĢĤçĶ¨äºİ": 4667,
      "å¹´æĿ¥": 4668,
      "ating": 4669,
      "å¤ļæł·æĢ§": 4670,
      "ç¼ĸç¨ĭè¯Ńè¨Ģ": 4671,
      "This": 4672,
      "åı¦ä¸Ģ": 4673,
      "åľºåĲĪ": 4674,
      "éĽĦ": 4675,
      "æ»¤": 4676,
      "çļĦç¾İé£Ł": 4677,
      "ä¸ĵæ³¨äºİ": 4678,
      "æĸĩæ¡£": 4679,
      "ater": 4680,
      "çļĦæĦıä¹ī": 4681,
      "____": 4682,
      "Ġ25": 4683,
      "çĽ¸åĬł": 4684,
      "åĬŀåħ¬": 4685,
      "åĪ©æ¶¦": 4686,
      "çĶ°": 4687,
      "çļĦç±": 4688,
      "äºĭé¡¹": 4689,
      "çļĦé¢ľèī²": 4690,
      "æĹłäºº": 4691,
      "æĭĵ": 4692,
      "ä¿¡ä»°": 4693,
      "åĴĮæ°´": 4694,
      "ä¸Ģç³»åĪĹ": 4695,
      "èĢĮè¨Ģ": 4696,
      "æīĭæľ¯": 4697,
      "æģ©": 4698,
      "å°±ä¼ļ": 4699,
      "çļĦçĶŁæ´»æĸ¹å¼ı": 4700,
      "Ġtheir": 4701,
      "æŁ¥æī¾": 4702,
      "æĽ´å¥½åľ°ç®¡çĲĨ": 4703,
      "æİ¨åĩº": 4704,
      "ys": 4705,
      "æľīä»»ä½ķ": 4706,
      "ä¾§": 4707,
      "å¾Ģå¾Ģ": 4708,
      "Ġco": 4709,
      "è¿ĲçĶ¨": 4710,
      "æıĲä¾Ľä¸Ģä¸ª": 4711,
      "lo": 4712,
      "æ°¸è¿ľ": 4713,
      "å¾Īé«ĺåħ´": 4714,
      "Ġ>": 4715,
      "Ġdetermine": 4716,
      "åľ¨è¿ĻéĩĮ": 4717,
      "æĪĳæĥ³çŁ¥éģĵ": 4718,
      "èĬĤæĹ¥": 4719,
      "çº¤ç»´": 4720,
      "é£ĺ": 4721,
      "æĪ´": 4722,
      "æķ°åĪĹ": 4723,
      "Ġmy": 4724,
      "æľīçļĦ": 4725,
      "çļĦæ¢": 4726,
      "å¸¸å¸¸": 4727,
      "å¹¿æ³ĽçļĦåºĶçĶ¨": 4728,
      "åĪĨåĪ°": 4729,
      "ä¼¼ä¹İ": 4730,
      "Ġinte": 4731,
      "çļĦçĬ": 4732,
      "Ġboth": 4733,
      "æĶ¿æ²»": 4734,
      "23": 4735,
      "ä½łå¯¹": 4736,
      "çļĦç³ĸ": 4737,
      "åĴª": 4738,
      "åįıè°ĥ": 4739,
      "åī¯": 4740,
      "æķ°æį®è¿Ľè¡Į": 4741,
      "è¿Ļæ®µæĸĩæľ¬": 4742,
      "çļĦæ¸¸æĪı": 4743,
      "å¸Ŀ": 4744,
      "çĶŁæĹ¥": 4745,
      "ä¸»è§Ĵ": 4746,
      "è®©äººä»¬": 4747,
      "åĴĮæĬĢæľ¯": 4748,
      "åıĭè°Ĭ": 4749,
      "ç¨®": 4750,
      "åĵªç§į": 4751,
      "ning": 4752,
      "æĹ¶åĪ»": 4753,
      "ĠCh": 4754,
      "Ġone": 4755,
      "è¿ĻäºĽéĹ®é¢ĺ": 4756,
      "æµĭéĩı": 4757,
      "æľªçŁ¥": 4758,
      "è½»è½»": 4759,
      "æ¯«": 4760,
      "ä½ĵèĤ²": 4761,
      "çĻ¼": 4762,
      "ç§įæ¤į": 4763,
      "å°ıçļĦ": 4764,
      "è®¡ç®Ĺæľºç§ĳåŃ¦": 4765,
      "æĽ´é«ĺ": 4766,
      "çļĦæ¬": 4767,
      "å¹¶ä¸º": 4768,
      "è¦ģæ³¨æĦı": 4769,
      "ç²¾åĬĽ": 4770,
      "çĸ«èĭĹ": 4771,
      "Ġassist": 4772,
      "å½ĵåľ°çļĦ": 4773,
      "æĩĤ": 4774,
      "çĽĴ": 4775,
      "cess": 4776,
      "Ð¸": 4777,
      "æĪĳæľĢè¿ĳ": 4778,
      "åıªèĥ½": 4779,
      "ä¸¥æł¼": 4780,
      "åĲ¸æĶ¶": 4781,
      "Java": 4782,
      "Ġquest": 4783,
      "åĬłä¸Ĭ": 4784,
      "éĺĶ": 4785,
      "ä¸ĭéĻį": 4786,
      "ç·": 4787,
      "çº·": 4788,
      "ä¸įå¤ª": 4789,
      "æĽ´æľī": 4790,
      "ä½¿çĶ¨äºĨ": 4791,
      "å¹¶å°Ĩåħ¶": 4792,
      "è¿ħéĢŁ": 4793,
      "å®¾": 4794,
      "lease": 4795,
      "çĶ·æĢ§": 4796,
      "2022": 4797,
      "åŃ¦èĢħ": 4798,
      "éĢļå¸¸æĺ¯": 4799,
      "çŀ": 4800,
      "çĪ±çļĦ": 4801,
      "çļĦæµģ": 4802,
      "éģĵè·¯": 4803,
      "è·ĥ": 4804,
      "åı¯ä»¥æĺ¯": 4805,
      "ä¼łè¾¾": 4806,
      "æĦ¿æĦı": 4807,
      "æĴ°": 4808,
      "äººéĻħ": 4809,
      "ä¼Ļ": 4810,
      "ari": 4811,
      "æ±¤å§Ĩ": 4812,
      "å®ĮæĪĲä»»åĬ¡": 4813,
      "numbers": 4814,
      "22": 4815,
      "æıĲç¤º": 4816,
      "its": 4817,
      "æĪĳä¸ºæĤ¨": 4818,
      "ks": 4819,
      "æĸ°åŀĭ": 4820,
      "æľįè£ħ": 4821,
      "é£Łè°±": 4822,
      "ä¸ĭéĿ¢æĺ¯": 4823,
      "åĮĸåĲĪçī©": 4824,
      "èĬ±è´¹": 4825,
      "è¡Ģåİĭ": 4826,
      "èµĦäº§": 4827,
      "å·¥èīº": 4828,
      "åĽ¾åĥıè¯ĨåĪ«": 4829,
      "ä»¥ä¸ĭåĩłä¸ªæĸ¹éĿ¢": 4830,
      "åľĪ": 4831,
      "çļĦæĢģ": 4832,
      "çļĦç¨ĭ": 4833,
      "æĽ´ä¸º": 4834,
      "Ġtwo": 4835,
      "æ¬§æ´²": 4836,
      "Ġar": 4837,
      "ä¸ĥ": 4838,
      "èıľåįķ": 4839,
      "æĢİæł·": 4840,
      "æª¬": 4841,
      "Luc": 4842,
      "ĠåĪ¶å®ļ": 4843,
      "æī¬": 4844,
      "çĶ³è¯·": 4845,
      "åĲĪåĲĮ": 4846,
      "çĪ¬": 4847,
      "æ¼Ķåĳĺ": 4848,
      "æĺ¥å¤©": 4849,
      "ä¼ļå¯¼èĩ´": 4850,
      "Ġtask": 4851,
      "çļĦæł¸å¿ĥ": 4852,
      "Ġfe": 4853,
      "æľīæīĢå¸®åĬ©": 4854,
      "çļĦåŁİå¸Ĥ": 4855,
      "Ġkn": 4856,
      "è¿Ĳç®Ĺ": 4857,
      "Ġæĺ¯": 4858,
      "eng": 4859,
      "åİŁåĪĻ": 4860,
      "ello": 4861,
      "çļĦæ¼Ķ": 4862,
      "åĴĮçĲĨè§£": 4863,
      "ĠĠĠ": 4864,
      "Ġ\\).": 4865,
      "äº§ä¸ļ": 4866,
      "è¿Ļæł·çļĦ": 4867,
      "äºĭä¸ļ": 4868,
      "å¿ĥçĲĨåģ¥åº·": 4869,
      "æ¯ķ": 4870,
      "è®¾å®ļ": 4871,
      "çļĦæĽ": 4872,
      "èīºæľ¯å®¶": 4873,
      "łæª¬": 4874,
      "äºĮæ°§åĮĸ": 4875,
      "ç»Ļä½łä¸¤ä¸ª": 4876,
      "ç¾Ĭ": 4877,
      "å§ľ": 4878,
      "åĲĮæł·": 4879,
      "åı¯ä»¥çĶ¨": 4880,
      "oy": 4881,
      "Ġthan": 4882,
      "âĦ": 4883,
      "åĭĩæķ¢": 4884,
      "èº«ä½ĵåĴĮ": 4885,
      "ãĢĤâĢľ": 4886,
      "Ġ{": 4887,
      "æĵİ": 4888,
      "ä»¥ä¸ĭåĩł": 4889,
      "ĠIf": 4890,
      "æ©Ł": 4891,
      "æĺ¯éĿŀå¸¸éĩįè¦ģçļĦ": 4892,
      "æĿ¥æıĲé«ĺ": 4893,
      "æ¯ıæ¬¡": 4894,
      "AP": 4895,
      "ä¸Ģé¡¹": 4896,
      "æĤī": 4897,
      "è°ĥèĬĤ": 4898,
      "æħ¢æħ¢": 4899,
      "å¤įæĿĤçļĦ": 4900,
      "è±¡å¾ģ": 4901,
      "Ð½": 4902,
      "æŃ¦": 4903,
      "çļĦæĶ¶": 4904,
      "åıĮæĸ¹": 4905,
      "æĹ§": 4906,
      "æĿ¥è®¡ç®Ĺ": 4907,
      "å¹³éĿ¢": 4908,
      "çĬ¯ç½ª": 4909,
      "con": 4910,
      "çļĦåĢ¼": 4911,
      "å¼ķæĵİ": 4912,
      "äººåı£": 4913,
      ")```": 4914,
      "Em": 4915,
      "Ġtime": 4916,
      "ä¼¸": 4917,
      "æĿİåĽĽ": 4918,
      "çļĦæĢ§èĥ½": 4919,
      "æ³Ħ": 4920,
      "åĴĮå·¥ä½ľ": 4921,
      "è§Ĵèī²ä¿¡æģ¯å¦Ĥä¸ĭ": 4922,
      "ç»Ļä½łä¸¤ä¸ªè§Ĵèī²ä¿¡æģ¯å¦Ĥä¸ĭ": 4923,
      "å½ĵä»Ĭ": 4924,
      "æ¼ı": 4925,
      "ute": 4926,
      "çĶŁæĪĲä»ĸä»¬ä¹ĭéĹ´çļĦ": 4927,
      "çĶŁæĪĲä»ĸä»¬ä¹ĭéĹ´çļĦä¸Ģæ®µå¯¹è¯Ŀ": 4928,
      "è¦ģæ±Ĥå¯¹è¯ĿåĨħå®¹": 4929,
      "è¯¦ç»Ĩä¸°å¯Į": 4930,
      "çªģçĦ¶": 4931,
      "è¦ģæ±Ĥå¯¹è¯ĿåĨħå®¹è¯¦ç»Ĩä¸°å¯Į": 4932,
      "èĥ¡æ¤Ĵ": 4933,
      "Ġfirst": 4934,
      "èĤ¯": 4935,
      "Ġpart": 4936,
      "æ¶Ĥ": 4937,
      "åľ°çĲĥçļĦ": 4938,
      "è®¡ç®Ĺæľºè§Ĩè§ī": 4939,
      "Ġcomm": 4940,
      "ven": 4941,
      "æĪĳè§īå¾Ĺ": 4942,
      "ict": 4943,
      "æĺ¯å¦Ĥä½ķ": 4944,
      "æĹłéĻĲ": 4945,
      "å¯ĮåĲ«": 4946,
      "âĦĥ": 4947,
      "rent": 4948,
      "å·²ç»ıæĪĲä¸º": 4949,
      "åĪĹè¡¨ä¸Ń": 4950,
      "çģ°": 4951,
      "åĵºä¹³åĬ¨çī©": 4952,
      "'t": 4953,
      "gh": 4954,
      "çļĦæŃ¥éª¤": 4955,
      "å®ŀçĶ¨": 4956,
      "åĨĻä¸Ģä¸ª": 4957,
      "çļĦçľĭ": 4958,
      "Ġcost": 4959,
      "çķ¶": 4960,
      "Ġ<": 4961,
      "ä¹ĭéĹ´çļĦåħ³ç³»": 4962,
      "éĿ¢è¯ķ": 4963,
      "Ġ18": 4964,
      "èµ¢": 4965,
      "åıįæĺł": 4966,
      "çģŃ": 4967,
      "å®ĮåĸĦ": 4968,
      "å¥ĸåĬ±": 4969,
      "åľºæīĢ": 4970,
      "ç¦»å¼Ģ": 4971,
      "æ¸©å®¤æ°Ķä½ĵ": 4972,
      "åĮ¹éħį": 4973,
      "çļĦç±»": 4974,
      "å¤§èĦĳ": 4975,
      "å°½åĬĽ": 4976,
      "éĺ´": 4977,
      "æĪĳå¸ĮæľĽ": 4978,
      "Ġ19": 4979,
      "Ġpe": 4980,
      "ç¦ģ": 4981,
      "çļĦæ¶Ī": 4982,
      "ÑĤ": 4983,
      "æī©å¤§": 4984,
      "}\\)": 4985,
      "ä¸ĢæĿ¡": 4986,
      "æĳĩ": 4987,
      "Ġstep": 4988,
      "è¾ĵåĩºç»ĵæŀľ": 4989,
      "å¿§": 4990,
      "ä¼ĺåħĪçº§": 4991,
      "28": 4992,
      "è¯ĬæĸŃåĴĮæ²»çĸĹ": 4993,
      "çļĦæľºä¼ļ": 4994,
      "æ¿ĢåĬ±": 4995,
      "èĺ": 4996,
      "Ġits": 4997,
      "æĿ¥è§£åĨ³": 4998,
      "ative": 4999,
      "æĿĥåĪ©": 5000,
      "å¹¶ä¸įæĺ¯": 5001,
      "ç©¿çĿĢ": 5002,
      "low": 5003,
      "ç§Ĵ": 5004,
      "åĪĻæĺ¯": 5005,
      "åĪĨç±»ä¸º": 5006,
      "ä¾¿æį·": 5007,
      "å®ŀéĻħä¸Ĭ": 5008,
      "æ¢¦æĥ³": 5009,
      ":-": 5010,
      "çº¯": 5011,
      "åĵ¦": 5012,
      "ä¿¡çĶ¨": 5013,
      "çļĩ": 5014,
      "çļĦè¯Ŀ": 5015,
      "æ²Ļæĭī": 5016,
      "éĻ·": 5017,
      "åı¤èĢģ": 5018,
      "Ġmany": 5019,
      "\"ï¼Į": 5020,
      "ert": 5021,
      "ç²¾åĩĨ": 5022,
      "å®īåħ¨åĴĮ": 5023,
      "ound": 5024,
      "éĸĵ": 5025,
      "ma": 5026,
      "èĬ±åĽŃ": 5027,
      "è¯¢éĹ®": 5028,
      "å¤ļåħĥ": 5029,
      "à®": 5030,
      "æĭħå¿ĥ": 5031,
      "Ġtrans": 5032,
      "ased": 5033,
      "å¹´ä»£": 5034,
      "ĠĊ": 5035,
      "æ¼Ĥ": 5036,
      "åı£è¯Ń": 5037,
      "ä¸įéľĢè¦ģ": 5038,
      "Â°": 5039,
      "æľŁæľĽ": 5040,
      "ä»ĭç»įäºĨ": 5041,
      "çļĦç¼ĸç¨ĭ": 5042,
      "è¿ĺåī©ä¸ĭ": 5043,
      "old": 5044,
      "Ġyear": 5045,
      "éĻĦè¿ĳ": 5046,
      "åģļå¥½": 5047,
      "ç§ĳæĬĢçļĦ": 5048,
      "æĪĳå¯¹": 5049,
      "æĺ¯æĪĳä»¬": 5050,
      "å®ļåĪ¶": 5051,
      "èĥ¸": 5052,
      "éĩĳå±ŀ": 5053,
      "è½¬åĮĸä¸º": 5054,
      "Ġæķ°æį®": 5055,
      "ä¸įä»ħä»ħ": 5056,
      "çīĽèĤī": 5057,
      "åŃĲåĴĮ": 5058,
      "èĭ¥": 5059,
      "ãĢĭãĢĤ": 5060,
      "è¿Ļä¸ªåı¥åŃĲ": 5061,
      "åį°åº¦": 5062,
      "ä¸Ģéģĵ": 5063,
      "åıĹæ¬¢è¿İçļĦ": 5064,
      "åĴĮæĬĢèĥ½": 5065,
      "åº¦åģĩ": 5066,
      "æ¦Ĥæĭ¬": 5067,
      "çļĦä½įç½®": 5068,
      "Ġbet": 5069,
      "åıĤè§Ĥ": 5070,
      "ä»ĭç»įä¸Ģä¸ĭ": 5071,
      "åĴĮæĹ¶éĹ´": 5072,
      "éĩįå¤§": 5073,
      "æł¹æį®èĩªå·±çļĦ": 5074,
      "é¢Ĺç³ĸæŀľ": 5075,
      "ç£ģ": 5076,
      "æĳ©": 5077,
      "çļĦçľŁ": 5078,
      "Ġå»ºç«ĭ": 5079,
      "åĴĮè¡Įä¸º": 5080,
      "ode": 5081,
      "çļĦæŁ": 5082,
      "ç»Ļåĩºä¸Ģä¸ª": 5083,
      "çĸ«æĥħ": 5084,
      "æ¦Ħ": 5085,
      "çªģåĩº": 5086,
      "èĩªçĦ¶çģ¾å®³": 5087,
      "è¡¨è¾¾äºĨ": 5088,
      "Ħæ¦Ħ": 5089,
      "otal": 5090,
      "åį°è±¡": 5091,
      "Ġup": 5092,
      "äºĮæ°§åĮĸç¢³": 5093,
      "æİ¨èįĲä¸ĢäºĽ": 5094,
      "éļľç¢į": 5095,
      "Ġ16": 5096,
      "å½ĵä½ł": 5097,
      "æŁłæª¬": 5098,
      "çĥ¤ç®±": 5099,
      "æİ¢éĻ©": 5100,
      "Ġterm": 5101,
      "é»ĳèī²": 5102,
      "çļĦæııè¿°": 5103,
      "çļĦçĸ": 5104,
      "çļĦç¥ŀ": 5105,
      "åľ¨æŁĲäºĽ": 5106,
      "ä¸ĭåįĪ": 5107,
      "è¿Ļæľ¬ä¹¦": 5108,
      "Ġshould": 5109,
      "æĦŁæŁĵ": 5110,
      "å¾ĭå¸Ī": 5111,
      "æ´ĭèĳ±": 5112,
      "æĮĸ": 5113,
      "çİ©åħ·": 5114,
      "ah": 5115,
      "æ²Ļæ»©": 5116,
      "å¹´è½»äºº": 5117,
      "æĪĳæĹłæ³ķ": 5118,
      "æĦīæĤ¦": 5119,
      "è´§å¸ģ": 5120,
      "å¿ĥçģµ": 5121,
      "è²Į": 5122,
      "Ġfollowing": 5123,
      "å®īåħ¨æĢ§": 5124,
      "ħåĬĽ": 5125,
      "ä¼¤å®³": 5126,
      "æĪĳåĢĳ": 5127,
      "æ²¿": 5128,
      "formation": 5129,
      "éķ¿çļĦ": 5130,
      "çļĦçī¹çĤ¹": 5131,
      "çļĦæ¢¦": 5132,
      "ç¢Ĺ": 5133,
      "æ¿Ģåıĳ": 5134,
      "åĪł": 5135,
      "Hello": 5136,
      "æĢİä¹Īæł·": 5137,
      "åľ¨ä¸ŃåĽ½": 5138,
      "ä»İæĸĩç«ł": 5139,
      "æī©å±ķ": 5140,
      "1000": 5141,
      "æĻ´": 5142,
      "éľĢè¦ģè¿Ľè¡Į": 5143,
      "ç¨į": 5144,
      "çĮª": 5145,
      "çļĦçľĭæ³ķ": 5146,
      "get": 5147,
      "Ġrespon": 5148,
      "åħģ": 5149,
      "åĪ·": 5150,
      "çļĦè¯Ńè¨Ģ": 5151,
      "åľĭ": 5152,
      "åıªè¦ģ": 5153,
      "æĦıè§ģ": 5154,
      "èįīèİĵ": 5155,
      "aus": 5156,
      "åı¯èĥ½æĢ§": 5157,
      "ä»¥å¸®åĬ©": 5158,
      "}$": 5159,
      "æĮĩåĩº": 5160,
      "çĻ½èī²": 5161,
      "åº¦è¿ĩ": 5162,
      "è·¯çº¿": 5163,
      "å¿łè¯ļ": 5164,
      "æ·±åĳ¼åĲ¸": 5165,
      "è¿Ĳè¾ĵ": 5166,
      "éħª": 5167,
      "çĮİ": 5168,
      "áĢ": 5169,
      "å¤§åľ°": 5170,
      "ç³»ç»ŁçļĦ": 5171,
      "è¦ĨçĽĸ": 5172,
      "ample": 5173,
      "æ°´ä¸Ń": 5174,
      "åķĨåĬ¡": 5175,
      "åķı": 5176,
      "å¤ľæĻļ": 5177,
      "æī£": 5178,
      "è¯·éĹ®æĤ¨": 5179,
      "è¿Ļæł·åı¯ä»¥": 5180,
      "å¼Ģå¤´": 5181,
      "æĳĨ": 5182,
      "æŃĮè¯į": 5183,
      "æľīæīĢä¸įåĲĮ": 5184,
      "åĴĮéľĢæ±Ĥ": 5185,
      "ç½ļ": 5186,
      "Ġ50": 5187,
      "æģĭ": 5188,
      "ï¼īãĢģ": 5189,
      "åŃĲéĩĮ": 5190,
      "åĹ¯": 5191,
      "çļĦç´": 5192,
      "èĲ¥éĶĢçŃĸçķ¥": 5193,
      "ä¹±": 5194,
      "ç»ĻäºĪ": 5195,
      "æĦıè¯ĨåĪ°": 5196,
      "å¹¶ç¡®ä¿Ŀ": 5197,
      "åį§": 5198,
      "Ġhis": 5199,
      "æ¯ıä¸ªæľĭåıĭ": 5200,
      "Ġworld": 5201,
      "çī©æµģ": 5202,
      "ory": 5203,
      "èŀįåĲĪ": 5204,
      "é¡Į": 5205,
      "åĮ»éĻ¢": 5206,
      "Ġequation": 5207,
      "Ġdoes": 5208,
      ".ãĢĬ": 5209,
      "æĪĳä»¬åı¯ä»¥ä½¿çĶ¨": 5210,
      "ĠFinal": 5211,
      "æ¸¸å®¢": 5212,
      "duct": 5213,
      "return": 5214,
      "äººå·¥æĻºèĥ½åı¯ä»¥": 5215,
      "è¯ķåĽ¾": 5216,
      "æĬĳ": 5217,
      "æĴĴ": 5218,
      "åĴĮåŃ¦ä¹ł": 5219,
      "åģıè§ģ": 5220,
      "è¾£æ¤Ĵ": 5221,
      "ors": 5222,
      "è¯·æ±Ĥ": 5223,
      "æĺ¯ä¸Ģéĥ¨": 5224,
      "çļĦæľįåĬ¡": 5225,
      "ides": 5226,
      "ä¿®å¤į": 5227,
      "ĠPro": 5228,
      "æĻ®éĢļ": 5229,
      "ility": 5230,
      "æ©Ħæ¦Ħ": 5231,
      "æĹ©é¤Ĳ": 5232,
      "çļĦä¸»": 5233,
      "çļĦæģ": 5234,
      "ä¼Ł": 5235,
      "ä½łä¼ļ": 5236,
      "è¯·æ³¨æĦı": 5237,
      "çİ¯ä¿ĿæĦıè¯Ĩ": 5238,
      "åī²": 5239,
      "ose": 5240,
      "çŁ©": 5241,
      "ÑĢ": 5242,
      "å²¸": 5243,
      "çģµæĦŁ": 5244,
      "Ġwhat": 5245,
      "ç»ĦæĪĲéĥ¨åĪĨ": 5246,
      "çļĦæĳĦ": 5247,
      "Ġph": 5248,
      "ption": 5249,
      "å¤ĸè§Ĥ": 5250,
      "å±ıå¹ķ": 5251,
      "åĽŀå¿Ĩ": 5252,
      "æĤ²": 5253,
      "åıĺéĿ©": 5254,
      "è½¨": 5255,
      "çº¹": 5256,
      "å¦Ĩ": 5257,
      "ener": 5258,
      "è§£éĩĬä¸Ģä¸ĭ": 5259,
      "åĴĮèµĦæºĲ": 5260,
      "ä¼ĺè´¨": 5261,
      "åħĪè¿Ľ": 5262,
      "åĽłä¸ºå®ĥä»¬": 5263,
      "ä¼Ĭ": 5264,
      "ä¸įç¡®å®ļ": 5265,
      "ä¼łç»ŁæĸĩåĮĸ": 5266,
      "æĸ°éĹ»æĬ¥éģĵ": 5267,
      "æ®ĸ": 5268,
      "\"ãĢĤ": 5269,
      "70": 5270,
      "éĶħä¸Ń": 5271,
      "æĪĲåĬŁçļĦ": 5272,
      "åŃ©åŃĲä»¬": 5273,
      "æĩī": 5274,
      "åıĸåĩº": 5275,
      "ç¬¬äºĮä¸ª": 5276,
      "åı¯è¡Į": 5277,
      "éĻª": 5278,
      "é¢ĳçİĩ": 5279,
      "çīĪæľ¬": 5280,
      "çİ¯ä¿ĿçļĦ": 5281,
      "Ġä½łå¥½": 5282,
      "é©±": 5283,
      "è³ĩ": 5284,
      "åĳ¨æľ«": 5285,
      "ana": 5286,
      "åħģè®¸": 5287,
      "æ¶µçĽĸ": 5288,
      "åĴĮä½¿çĶ¨": 5289,
      "ç¢º": 5290,
      "åŁİå¸ĤçļĦ": 5291,
      "åįıè®®": 5292,
      "è¢«è®¤ä¸ºæĺ¯": 5293,
      "æ·±è¿ľçļĦå½±åĵį": 5294,
      "æ¸ħæ´Ĺ": 5295,
      "è¯¦ç»ĨçļĦ": 5296,
      "æľīæľº": 5297,
      "æľĢéĢĤåĲĪ": 5298,
      "æłĩçŃ¾": 5299,
      "åĪĢ": 5300,
      "çĮ«åĴª": 5301,
      "åıĸå¾ĹäºĨ": 5302,
      "æĺ¨å¤©": 5303,
      "ä¸Ģæľ¬": 5304,
      "çĭĹçĭĹ": 5305,
      "åĮºåĪ«": 5306,
      "çļĦè¿ĲåĬ¨": 5307,
      "èµĭ": 5308,
      "ince": 5309,
      "åĪĨè§£": 5310,
      "åħ¬åħ±äº¤éĢļ": 5311,
      "çº¦ä¸º": 5312,
      "é£ŀæľº": 5313,
      "Ġabout": 5314,
      "ĊĠĠĠĠĠĠĠ": 5315,
      "ĠIt": 5316,
      "å¿ĥèĦı": 5317,
      "æ¡¥": 5318,
      "Ġke": 5319,
      "äºĭæķħ": 5320,
      "ĠHe": 5321,
      "çĳŀ": 5322,
      "35": 5323,
      "æİ¥è§¦": 5324,
      "å¼ºå¤§": 5325,
      "èĬ³": 5326,
      "Ġele": 5327,
      ")^": 5328,
      "çĥŃæĥħ": 5329,
      "å®ļä½į": 5330,
      "ments": 5331,
      "å°¿": 5332,
      "çŃīæĬĢæľ¯": 5333,
      "è¿ĳå¹´æĿ¥": 5334,
      "åı¯ä»¥ä»İ": 5335,
      "äººåĲį": 5336,
      "Ġdog": 5337,
      "å¼ºå¤§çļĦ": 5338,
      "io": 5339,
      "è¿ĺæľīåħ¶ä»ĸ": 5340,
      "æĺ¾èĳĹ": 5341,
      "è¿ĩäºİ": 5342,
      "å¥½å¤Ħ": 5343,
      "ä»ĸä»¬åľ¨": 5344,
      "åĬĽäºİ": 5345,
      "åįľ": 5346,
      "æĹ¥å¸¸çĶŁæ´»": 5347,
      "ä»¿ä½Ľ": 5348,
      "éĤ£ä¸ª": 5349,
      "æĹ¥å¸¸çĶŁæ´»ä¸Ń": 5350,
      "ĠHow": 5351,
      "æĬķåħ¥": 5352,
      "å¤§å¤ļ": 5353,
      "æķ°æį®åºĵ": 5354,
      "ãĢĤãĢĬ": 5355,
      "è´«": 5356,
      "é«ĺè´¨éĩı": 5357,
      "()`": 5358,
      "75": 5359,
      "æĪĳä»¬ä¼ļ": 5360,
      "èıĩ": 5361,
      "çĶ·åŃ©": 5362,
      "æĭĽèģĺ": 5363,
      "rand": 5364,
      "è±ĨèħĲ": 5365,
      "by": 5366,
      "æĤ¬": 5367,
      "ç»Ļå®ļä¸Ģä¸ª": 5368,
      "æ°§æ°Ķ": 5369,
      "åĪļåĪļ": 5370,
      "oog": 5371,
      "é¸Ń": 5372,
      "èģĮåľº": 5373,
      "å¾Īå¥½çļĦ": 5374,
      "ç£¨": 5375,
      "å·¥ä½ľæķĪçİĩ": 5376,
      "æĹĭå¾ĭ": 5377,
      "Ġ\\(\\": 5378,
      "åľ°ä½į": 5379,
      "æľĢæĸ°çļĦ": 5380,
      "èİ«": 5381,
      "ç²¾ç¡®": 5382,
      "èī¾ç±³": 5383,
      "å§ĵåĲį": 5384,
      "è¿Ļå®¶": 5385,
      "ä¹Łå¾Ī": 5386,
      "åı¯ä»¥å¸®åĬ©åĮ»çĶŁ": 5387,
      "ä¹Łåľ¨": 5388,
      "æĿİæĺİ": 5389,
      "èĬĤèĥ½": 5390,
      "æĺ¯éĢļè¿ĩ": 5391,
      "ä¼Ļä¼´": 5392,
      "cd": 5393,
      "Ġpoint": 5394,
      "Ġresult": 5395,
      "å½ĵæĹ¶": 5396,
      "oogle": 5397,
      "ä¿Ĺ": 5398,
      "ä»¥ä¸ĭåı¥åŃĲ": 5399,
      "éĻĪè¿°": 5400,
      "ä¸Ģå¼ł": 5401,
      "Ġsy": 5402,
      "è¾ĥé«ĺ": 5403,
      "æĪĳåĲ¬è¯´": 5404,
      "æķ°åŃĹåĮĸ": 5405,
      "é²ģ": 5406,
      "çļĦæ³ķå¾ĭ": 5407,
      "çĩĥæĸĻ": 5408,
      "å¢¨": 5409,
      "ç®¡çĲĨåĴĮ": 5410,
      "You": 5411,
      "åı¹": 5412,
      "çļĦæĦŁåıĹ": 5413,
      "éģŃ": 5414,
      "Ġdis": 5415,
      "æµģçķħ": 5416,
      "é¢ĨåŁŁçļĦåºĶçĶ¨": 5417,
      "ĠPython": 5418,
      "æĬķèµĦèĢħ": 5419,
      "æĥħæĦŁåĪĨæŀĲ": 5420,
      "èĩ´åĬĽäºİ": 5421,
      "ç§ĳæĻ®": 5422,
      "æłĩå¿Ĺ": 5423,
      "æ¬º": 5424,
      "çļĦæĬĢå·§": 5425,
      "çļĦä¸ĸçķĮ": 5426,
      "å¹½": 5427,
      "éĥ½åı¯ä»¥": 5428,
      "åĪłéĻ¤": 5429,
      "å®¢æĪ·æľįåĬ¡": 5430,
      "åĳ¨æľŁ": 5431,
      "æŀĦæĪĲ": 5432,
      "Ġdec": 5433,
      "æĪĳæĥ³äºĨè§£": 5434,
      "æĮĩä»¤": 5435,
      "æĦıå¤§åĪ©éĿ¢": 5436,
      "çĽĪ": 5437,
      "Ġ$$": 5438,
      "right": 5439,
      "å·²çŁ¥": 5440,
      "ï¼ī-": 5441,
      "vel": 5442,
      "Ġsc": 5443,
      "Ġposs": 5444,
      "æľĢå°ı": 5445,
      "ç¿»è¯ĳæĪĲä¸Ńæĸĩ": 5446,
      "çļĦæķĪæŀľ": 5447,
      "åľ¨ä½¿çĶ¨": 5448,
      "eth": 5449,
      "day": 5450,
      "æŀģç«¯": 5451,
      "çļĦæĸĩåĮĸ": 5452,
      "åĽĽä¸ª": 5453,
      "Ġwork": 5454,
      "Ġå¥½çļĦ": 5455,
      "æķ°åĢ¼": 5456,
      "çĶµåĻ¨": 5457,
      "Ñģ": 5458,
      "éĹľ": 5459,
      "èŃ¦å¯Ł": 5460,
      "ä»¥ä¸ĭæĺ¯ä¸Ģéģĵ": 5461,
      "æĵħ": 5462,
      "æĿ¥çľĭ": 5463,
      "äººæķ°": 5464,
      "ä¼¯": 5465,
      "åłµ": 5466,
      "çļĦè´¨éĩı": 5467,
      "åĪ¶åº¦": 5468,
      "å²©": 5469,
      "çļĦåħ³ç³»": 5470,
      "Ġdif": 5471,
      "æŀĿ": 5472,
      "åĪĿåŃ¦èĢħ": 5473,
      "Ġsec": 5474,
      "åİ»äºĨ": 5475,
      "å¤§æķ°æį®": 5476,
      "æĪĳä»¬åı¯ä»¥éĢļè¿ĩ": 5477,
      "àª": 5478,
      "åĲĳéĩı": 5479,
      "erson": 5480,
      "çļĦå¸®åĬ©": 5481,
      "çī¹æĢ§": 5482,
      "éĩĮçļĦ": 5483,
      "åħ´å¥ĭ": 5484,
      "æ¢°": 5485,
      "åľŁåľ°": 5486,
      "è«": 5487,
      "ER": 5488,
      "çĽ¾": 5489,
      "å¤±è´¥": 5490,
      "åĲĮåŃ¦": 5491,
      "Ġrem": 5492,
      "erv": 5493,
      "çļĦé«ĺ": 5494,
      "æĭĶ": 5495,
      "çĽ¸åıį": 5496,
      "å¼ºåº¦": 5497,
      "æĭĤ": 5498,
      "result": 5499,
      "ars": 5500,
      "ä¸ĢçĽ´åľ¨": 5501,
      "çĲĨå¿µ": 5502,
      "è¿Ľè¡ĮäºĨ": 5503,
      "åĬĽåŃ¦": 5504,
      "åĲĦåľ°": 5505,
      "åı«åģļ": 5506,
      "æĮĸæİĺ": 5507,
      "ä¸Ģåľº": 5508,
      "çļĦçĬ¶": 5509,
      "çŃĽ": 5510,
      "å¹²æī°": 5511,
      "åľ°åĿĢ": 5512,
      "åİŁåŃĲ": 5513,
      "å¦ĤæŀľæĤ¨éľĢè¦ģ": 5514,
      "Ġthey": 5515,
      "èµĦæĸĻ": 5516,
      "èı²": 5517,
      "å©ļç¤¼": 5518,
      "ä¸Ģèĩ´": 5519,
      "å®¿": 5520,
      "çļĦç¾İå¥½": 5521,
      "ç«ŀäºīå¯¹æīĭ": 5522,
      "æĶ¾å¼ĥ": 5523,
      "alculate": 5524,
      "è¿ĺèĥ½": 5525,
      "ä¸ĢåĪĩ": 5526,
      "ãģ®": 5527,
      "åĽŀæĬ¥": 5528,
      "çĥŃéĩı": 5529,
      "ä¸įåĨį": 5530,
      "çħİ": 5531,
      "å£ģ": 5532,
      "æľºåĻ¨ç¿»è¯ĳ": 5533,
      "åģ¥åº·åĴĮ": 5534,
      "å§¿åĬ¿": 5535,
      "éĩİçĶŁåĬ¨çī©": 5536,
      "ä¼ĳéĹ²": 5537,
      "åºĨç¥Ŀ": 5538,
      "åĪ¶æĪĲ": 5539,
      "Ġbec": 5540,
      "æĮĤ": 5541,
      "çļĦçģµ": 5542,
      "éģĹäº§": 5543,
      "ian": 5544,
      "å¦ĤæŀľæĪĳä»¬": 5545,
      "è£ģ": 5546,
      "èİ·å¾ĹäºĨ": 5547,
      "å¼ºè°ĥäºĨ": 5548,
      "åĨĻä¸Ģç¯ĩåħ³äºİäººå·¥æĻºèĥ½": 5549,
      "ä½ĵç³»": 5550,
      "ä½ĵçİ°": 5551,
      "æĶ¶çĽĬ": 5552,
      "åıĳéĢģ": 5553,
      "æıĲä¾ĽæĽ´åĬł": 5554,
      "æĬĢæľ¯çļĦåıĳå±ķ": 5555,
      "å°Ĩå®ĥä»¬": 5556,
      "string": 5557,
      "åĪĽéĢłåĬĽ": 5558,
      "Ġinformation": 5559,
      "DNA": 5560,
      "QL": 5561,
      "æĸľ": 5562,
      "çļĦæ¸ħ": 5563,
      "è®ĵ": 5564,
      "åĩĨç¡®æĢ§åĴĮ": 5565,
      "æĽ¼": 5566,
      "èĲĿåįľ": 5567,
      "åĴĮçĽ®æłĩ": 5568,
      "æĴĳ": 5569,
      "ä¸Ģå¹´": 5570,
      "æ¨¡åŀĭçļĦ": 5571,
      "ä¸ĢåĢĭ": 5572,
      "è¡¨çİ°åĩº": 5573,
      "äººåľ¨": 5574,
      "çļĦæĢģåº¦": 5575,
      "äººå·¥æĻºèĥ½æĬĢæľ¯çļĦ": 5576,
      "ä¹Ŀ": 5577,
      "åŃ¦çĶŁçļĦ": 5578,
      "æľ¬èº«": 5579,
      "æĻ®åıĬ": 5580,
      "æ¡Īä¾ĭ": 5581,
      "èĩªçĦ¶çİ¯å¢ĥ": 5582,
      "Ġour": 5583,
      "Ġsub": 5584,
      "ä»¥ä¸ĭæĺ¯ä¸Ģéģĵå°ıåŃ¦": 5585,
      "'m": 5586,
      "ä»¥ä¸ĭæŃ¥éª¤": 5587,
      "æ©Ħæ¦Ħæ²¹": 5588,
      "ä»Ķç»Ĩ": 5589,
      "æ¥ļ": 5590,
      "çļĦçĻ": 5591,
      "éĥ½åľ¨": 5592,
      "åį«æĺŁ": 5593,
      "èĥ½å¤Łåľ¨": 5594,
      "åĽ¢éĺŁåĲĪä½ľ": 5595,
      "Ġç¡®å®ļ": 5596,
      "ä¸Ģéĥ¨": 5597,
      "è¨Ī": 5598,
      "æĪĳæ²¡æľī": 5599,
      "æıĲåīį": 5600,
      "æĬĢè¡ĵ": 5601,
      "å¼ķå¯¼": 5602,
      "ç¯®çĲĥ": 5603,
      "ä»¥ä¸ĭæĺ¯ä¸Ģéģĵå°ıåŃ¦æķ°åŃ¦é¢ĺ": 5604,
      "Answer": 5605,
      "å¼ķåıĳ": 5606,
      "blem": 5607,
      "Ġ13": 5608,
      "çİ¯ä¿ĿçļĦæĸĩç«ł": 5609,
      "åĩĿ": 5610,
      "æľºéģĩ": 5611,
      "**,": 5612,
      "æĬ±æŃī": 5613,
      "éĩĳé¢Ŀ": 5614,
      "æĺ¯ä¸Ģé¡¹": 5615,
      "æ»´": 5616,
      "'re": 5617,
      "val": 5618,
      "å°ıåŀĭ": 5619,
      "é¸Łç±»": 5620,
      "åŃ¦ç§ĳ": 5621,
      "æ¡Īä»¶": 5622,
      "ç¯ĩåħ³äºİ": 5623,
      "è®²è¿°äºĨ": 5624,
      "å¥½äºĨ": 5625,
      "èĦĨ": 5626,
      "ject": 5627,
      "éľľ": 5628,
      "ution": 5629,
      "æĮĩåįĹ": 5630,
      "èĢģæĿ¿": 5631,
      "Ġz": 5632,
      "åĴĮä¼ĺåĮĸ": 5633,
      "Ġnumbers": 5634,
      "ours": 5635,
      "è±ª": 5636,
      "çļĦæĶ¹": 5637,
      "éĿ¢ä¸Ĭ": 5638,
      "ä¸Ģä»¶": 5639,
      "è¯ĦåĪĨ": 5640,
      "ä¸ĢæĿ¯": 5641,
      "æľīçĤ¹": 5642,
      "è´¦æĪ·": 5643,
      "æ¡ĥ": 5644,
      "å¦Īå¦Ī": 5645,
      "å¼¦": 5646,
      "æ¡Ĩæŀ¶": 5647,
      "éĩĩåıĸè¡ĮåĬ¨": 5648,
      "éĵº": 5649,
      "æĢª": 5650,
      "å¹¶è¿Ľè¡Į": 5651,
      "åħ³éĹŃ": 5652,
      "Ġmin": 5653,
      "ÙĦ": 5654,
      "åı¯ä»¥åĩıå°ĳ": 5655,
      "æ°´åĴĮ": 5656,
      "éī": 5657,
      ".,": 5658,
      "æľªæĿ¥åıĳå±ķ": 5659,
      "ä¼łæĦŁ": 5660,
      "åĲ¬èµ·æĿ¥å¾Ī": 5661,
      "æī«": 5662,
      "Ġæĺ¯çļĦ": 5663,
      "åĪĽéĢłåĩº": 5664,
      "çļĦç¨ĭåºı": 5665,
      "éĿŀå¸¸éĢĤåĲĪ": 5666,
      "åĴĮäººç±»": 5667,
      "éĢĬ": 5668,
      "å°½å¿«": 5669,
      "çľĭåĪ°äºĨ": 5670,
      "ä¸ŃåĽ½çļĦ": 5671,
      "ï¼ļãĢĬ": 5672,
      "çĽ¸æ¯Ķ": 5673,
      "æĻ®éģį": 5674,
      "æĹłè®ºæĺ¯": 5675,
      "çļĦçĹħ": 5676,
      "çĭĲ": 5677,
      "è¿Ļé¡¹": 5678,
      "åĨĮ": 5679,
      "è°¨": 5680,
      "å·¥ä½ľä¸Ń": 5681,
      "ç¼ĺ": 5682,
      "ĠæıĲä¾Ľ": 5683,
      "å¿ĹæĦ¿": 5684,
      "è®©ä»ĸä»¬": 5685,
      "Ġ11": 5686,
      "çļĦæ¤": 5687,
      "éĢļä¿¡": 5688,
      "æĥľ": 5689,
      "æķıæĦŁ": 5690,
      "Ġ---": 5691,
      "äºĨå¾Īå¤ļ": 5692,
      "åĸ»": 5693,
      "åĽŀå¤į": 5694,
      "æŁĲç§į": 5695,
      "å¤©çĦ¶": 5696,
      "æħİ": 5697,
      "Ġher": 5698,
      "çĶŁæĪĲä¸Ģä¸ªåħ³äºİ": 5699,
      "è¿«": 5700,
      "æµ¸": 5701,
      "çľ¼çĿĽ": 5702,
      "ople": 5703,
      "çļĦçĪ±æĥħ": 5704,
      "æĺ¯æľĢ": 5705,
      "ä¸įèī¯": 5706,
      "åĴĮé«ĺ": 5707,
      "å°ıåįİ": 5708,
      "çĶĺ": 5709,
      "ä¿ĿæĬ¤æĪĳä»¬çļĦ": 5710,
      "åĳ½ä»¤": 5711,
      "çļĦåĬŁèĥ½": 5712,
      "æĲº": 5713,
      "Ġword": 5714,
      "å¯¹åºĶ": 5715,
      "å»ºè®®åĲĹ": 5716,
      "æ¸ħæĸ°": 5717,
      "æ³Ĭ": 5718,
      "æĻĴ": 5719,
      "36": 5720,
      "éľĢè¦ģåľ¨": 5721,
      "åıĳåĩº": 5722,
      "çĶµåĬ¨": 5723,
      "çļĦåĲĮæĹ¶": 5724,
      "åĪ¶å®ļä¸Ģä¸ª": 5725,
      "ä¸ªä½ĵ": 5726,
      "æ¶ĪéĻ¤": 5727,
      "Ġresponse": 5728,
      "Th": 5729,
      "ç«ĭåį³": 5730,
      "è¿Ļæ¬¡": 5731,
      "èĢĥèĻĳåĪ°": 5732,
      "çĪ¸": 5733,
      "ä¸»äººåħ¬": 5734,
      "ä¼łæĦŁåĻ¨": 5735,
      "æ³ķè¯Ń": 5736,
      "è¥¿çıŃ": 5737,
      "çļĦçľ¼": 5738,
      "è¥¿çıŃçīĻ": 5739,
      "è¿ĲèĲ¥": 5740,
      "ãĢĭï¼Ī": 5741,
      "å¿ĥçĲĨåŃ¦": 5742,
      "éĢ²è¡Į": 5743,
      "Ġquestion": 5744,
      "ĠAnswer": 5745,
      "ç»ĻæĤ¨": 5746,
      "Ġdiv": 5747,
      "åĲĪæ³ķ": 5748,
      "åĬłçĥŃ": 5749,
      "æľĢåĸľæ¬¢çļĦ": 5750,
      "å§ĭç»Ī": 5751,
      "åĮºåĿĹéĵ¾æĬĢæľ¯": 5752,
      "åĴĮå¹³": 5753,
      "å¤Ħäºİ": 5754,
      "ç©Ĩ": 5755,
      "æ¯Ķä¾ĭ": 5756,
      "ç®Ģè¦ģ": 5757,
      "è¼": 5758,
      "åĴĮçŁ¥è¯Ĩ": 5759,
      "æ°¢": 5760,
      "å¯¹æĤ¨": 5761,
      "å°¤åħ¶æĺ¯": 5762,
      "åŃ¦ä¹łæĸ°": 5763,
      "é¦¨": 5764,
      "Ġ14": 5765,
      "æĪ¿å±ĭ": 5766,
      "éĿ¢ç²ī": 5767,
      "å¤©ä½ĵ": 5768,
      "arr": 5769,
      "å®Įç¾İ": 5770,
      "æ¥Ń": 5771,
      "cdot": 5772,
      "ower": 5773,
      "è´·": 5774,
      "åĿĩè¡¡": 5775,
      "å®¢æĪ·çļĦ": 5776,
      "çĶ»éĿ¢": 5777,
      "ç¥ŀç§ĺçļĦ": 5778,
      "éī´": 5779,
      "åĴĮç»ıéªĮ": 5780,
      "èŃ°": 5781,
      "å¹¶æıĲé«ĺ": 5782,
      "éĻ¤æŃ¤": 5783,
      "çļĦæĳĦåħ¥": 5784,
      "éĥ½èĥ½": 5785,
      "çİ¯å¢ĥéĹ®é¢ĺ": 5786,
      "å¤§å¤ļæķ°": 5787,
      "\\\\": 5788,
      "åĴĮä¸ªäºº": 5789,
      "çĶ¨åĵģ": 5790,
      "åĲĮä¹īè¯į": 5791,
      "å¹¿æ³ĽåºĶçĶ¨": 5792,
      "å¯¿åĳ½": 5793,
      "æı´": 5794,
      "éľĢè¦ģæł¹æį®": 5795,
      "æĵħéķ¿": 5796,
      "èĢĢ": 5797,
      "è¡Įé©¶": 5798,
      "æ¬²": 5799,
      "éĤĢ": 5800,
      "ç»ĻæĪĳä¸ĢäºĽ": 5801,
      "æĭ¼åĨĻ": 5802,
      "Ġother": 5803,
      "çĸ²åĬ³": 5804,
      "æľĪçĲĥ": 5805,
      "çĭ®": 5806,
      "æ»ļ": 5807,
      "à´": 5808,
      "åĭĴ": 5809,
      "çī©çļĦ": 5810,
      "çĶ¨éĢĶ": 5811,
      "åĻª": 5812,
      "å¯Įæľī": 5813,
      "æķ¦": 5814,
      "çŃīä¿¡æģ¯": 5815,
      "å½Ĵç±»": 5816,
      "çļĦæĶ¿": 5817,
      "ild": 5818,
      "åĶ¯ä¸Ģ": 5819,
      "çİ»": 5820,
      "å°ĩ": 5821,
      "éĻ¤æŃ¤ä¹ĭå¤ĸ": 5822,
      "çľĭçĶµå½±": 5823,
      "ä»İè¿Ļç¯ĩæĸĩç«ł": 5824,
      "å®ģéĿĻ": 5825,
      "LE": 5826,
      "ĠĠĠĠĠĠĠĠ": 5827,
      "é³": 5828,
      "^{": 5829,
      "æįŁå¤±": 5830,
      "ex": 5831,
      "çĭ¸": 5832,
      "CT": 5833,
      "iginal": 5834,
      "å±ķå¼Ģ": 5835,
      "éĺĲ": 5836,
      "æĪª": 5837,
      "æııç»ĺ": 5838,
      "str": 5839,
      "ç»ĵæŀĦåĴĮ": 5840,
      "çİ°ä»£ç¤¾ä¼ļ": 5841,
      "è¯·éļıæĹ¶": 5842,
      "è®¾è®¡ä¸Ģä¸ª": 5843,
      "çĽŁ": 5844,
      "ä¹Ļ": 5845,
      "éĨĭ": 5846,
      "åİĤ": 5847,
      "å°ıçİĭ": 5848,
      "lex": 5849,
      "Ġwhere": 5850,
      "ä¸Ńæľī": 5851,
      "åĽŀå½Ĵ": 5852,
      "à¹": 5853,
      "åħįè´¹": 5854,
      "å°ĺ": 5855,
      "æłĩè®°": 5856,
      "éĢīæĭ©ä¸Ģä¸ª": 5857,
      "çĮľ": 5858,
      "åĩĨç¡®åľ°": 5859,
      "Lucy": 5860,
      "name": 5861,
      "Ġä¿ĿæĮģ": 5862,
      "æĭĸ": 5863,
      "èį¡": 5864,
      "åĨ·éĿĻ": 5865,
      "å®ļå¾ĭ": 5866,
      "åĴĮçĶŁæ´»": 5867,
      "è¯Ī": 5868,
      "åŃ¦çĶŁçļĦåŃ¦ä¹ł": 5869,
      "--------": 5870,
      "è´¸": 5871,
      "å¼Ģå±ķ": 5872,
      "çī©èģĶç½ĳ": 5873,
      "æĶ¾æĿ¾èº«å¿ĥ": 5874,
      "çļĦæĢĿèĢĥ": 5875,
      "cm": 5876,
      "çĩķ": 5877,
      "æĺ¯äººç±»": 5878,
      "æĺİçĻ½äºĨ": 5879,
      "æĻ¨": 5880,
      "ä¹Ķ": 5881,
      "æĪĳè¿ĺ": 5882,
      "åĪ¶åĵģ": 5883,
      "è°ľ": 5884,
      "çļĦçĭĹ": 5885,
      "çļĦæŃĮæĽ²": 5886,
      "åĩºçĶŁ": 5887,
      "è®¢åįķ": 5888,
      "çĽĹ": 5889,
      "èĬĴ": 5890,
      "ç»ĺçĶ»": 5891,
      "éĶģ": 5892,
      "Ġrel": 5893,
      "äººéĻħåħ³ç³»": 5894,
      "åı¯ä»¥çĶ¨æĿ¥": 5895,
      "æĶ¯éĵħç¬Ķ": 5896,
      "é¢Ŀå¤ĸ": 5897,
      "æī¾åĪ°äºĨ": 5898,
      "çĥŃéĹ¨": 5899,
      "æıĲä¾ĽæĽ´": 5900,
      "æķĻèĤ²åĴĮ": 5901,
      "è¿Ļæĺ¯åĽłä¸º": 5902,
      "åħĶåŃĲ": 5903,
      "Ġset": 5904,
      "èµ·æºĲ": 5905,
      "å±Ĥæ¬¡": 5906,
      "æ°ĽåĽ´": 5907,
      "æĮĩå®ļ": 5908,
      "è¿ľç¨ĭ": 5909,
      "Ġcre": 5910,
      "åĽ¾çīĩ": 5911,
      "æ¢ħ": 5912,
      "ĽçĽ¾": 5913,
      "è¿ĻæľīåĬ©äºİ": 5914,
      "æĸĩæľ¬ä¸ŃçļĦ": 5915,
      "å®¶çļĦ": 5916,
      "çļĦæ¢¦æĥ³": 5917,
      "ä¹Łå°Ĩ": 5918,
      "Ġå¦Ĥæŀľ": 5919,
      "æĿ¥è¿Ľè¡Į": 5920,
      "ä¹Łå°±æĺ¯": 5921,
      "åĪĹä¸¾": 5922,
      "ues": 5923,
      "ons": 5924,
      "æĿ¥å¸®åĬ©": 5925,
      "å¸¸çĶ¨çļĦ": 5926,
      "ĠEx": 5927,
      "èĸª": 5928,
      "çĽĨ": 5929,
      "çļĦä»£çłģ": 5930,
      "å¹¶æł¹æį®": 5931,
      "èĴĻ": 5932,
      "çĨŁæĤī": 5933,
      "è£Ļ": 5934,
      "ä¸ºä¸»": 5935,
      "å¹´äºº": 5936,
      "åĬ¨æĢģ": 5937,
      "é¥®é£Łä¹łæĥ¯": 5938,
      "GP": 5939,
      "å½ĵæĪĳä»¬": 5940,
      "èªŀ": 5941,
      "è°¢è°¢ä½łçļĦ": 5942,
      "éĿ¢ä¸´çĿĢ": 5943,
      "è¢ĸ": 5944,
      "èĩªçĦ¶è¯Ńè¨Ģå¤ĦçĲĨæĬĢæľ¯": 5945,
      "ffe": 5946,
      "çĩ¥": 5947,
      "ä»Ļ": 5948,
      "ĠØ": 5949,
      "Ġthere": 5950,
      "çļĦç½ĳç«Ļ": 5951,
      "ĠæĻºèĥ½": 5952,
      "verage": 5953,
      "åı¯è§Ĩ": 5954,
      "rit": 5955,
      "å¾Ĵ": 5956,
      "ä¹Ĳè¶£": 5957,
      "çļĦæ°ĽåĽ´": 5958,
      "çļĦç«ŀäºī": 5959,
      "æľīçĶ¨": 5960,
      "å®ĺæĸ¹": 5961,
      "ç³Ĭ": 5962,
      "Ġ40": 5963,
      "èİİ": 5964,
      "å¯Ĩåº¦": 5965,
      "åı¯éĿłæĢ§": 5966,
      "çĨĬçĮ«": 5967,
      "èĬĿå£«": 5968,
      "å¤ªç©ºæİ¢ç´¢": 5969,
      "åħ±åĲĮåĬªåĬĽ": 5970,
      "å°±åĥı": 5971,
      "orld": 5972,
      "Ġrange": 5973,
      "æľīå®³": 5974,
      "æ¼Ķè®²": 5975,
      "Ġ==": 5976,
      "è¶ĬæĿ¥è¶Ĭå¤ļ": 5977,
      "ines": 5978,
      "åī§æĥħ": 5979,
      "Ġuse": 5980,
      "æŁĶè½¯": 5981,
      "ä»¥éģ¿åħį": 5982,
      "éĩĮéĿ¢": 5983,
      "åįıåĬ©": 5984,
      "åı¤åħ¸": 5985,
      "çļĦåŃ£èĬĤ": 5986,
      "åĩ¡": 5987,
      "èĭ±éĽĦ": 5988,
      "å®īéĿĻ": 5989,
      "èĪĩ": 5990,
      "æĶ¯æĮģåĴĮ": 5991,
      "æĪĳæŃ£åľ¨": 5992,
      "ä½ĵç§¯": 5993,
      "é¢Ħè®¢": 5994,
      "å°ºå¯¸": 5995,
      "è¿Ļéģĵ": 5996,
      "Ġsome": 5997,
      "é»ĳæļĹ": 5998,
      "åĴĮåģ¥åº·": 5999,
      "èĴĤ": 6000,
      "åŃ¦æľ¯": 6001,
      "è°ĵ": 6002,
      "çĴĥ": 6003,
      "åĵįåºĶ": 6004,
      "æ³Ħéľ²": 6005,
      "æľīæ°§": 6006,
      "åĪĨæķ£": 6007,
      "çĽ®æłĩåĴĮ": 6008,
      "çļĦæ³¨": 6009,
      "åĨ¬åŃ£": 6010,
      "æ»¡æĦıåº¦": 6011,
      "èĿ¶": 6012,
      "è¯¸": 6013,
      "æĦŁçŁ¥": 6014,
      "èĢį": 6015,
      "ä¹Łåı¯èĥ½": 6016,
      "Ġany": 6017,
      "åĲ¬åĪ°": 6018,
      "æĤ¨åı¯ä»¥ä½¿çĶ¨": 6019,
      "å¹¶ä½¿çĶ¨": 6020,
      "å¹¿æ³ĽçļĦ": 6021,
      "æĻ¶": 6022,
      "çļĦåĬĽéĩı": 6023,
      "ize": 6024,
      "æıŃ": 6025,
      "äººå·¥æĻºèĥ½å°Ĩ": 6026,
      "Ph": 6027,
      "æķ¸æĵ": 6028,
      "æķ¸æĵļ": 6029,
      "æ°ĳæĹı": 6030,
      "åĨħçļĦ": 6031,
      "åĪĽéĢłä¸Ģä¸ª": 6032,
      "ãĢĮ": 6033,
      "æµģéĩı": 6034,
      "åĴĮå¤ĦçĲĨ": 6035,
      "åĲĮæĦı": 6036,
      "åģļæ³ķ": 6037,
      "è¾ĥä½İ": 6038,
      "éĢīæĭ©åĲĪéĢĤçļĦ": 6039,
      "Ġcontain": 6040,
      "åģ¶æķ°": 6041,
      "å©´": 6042,
      "åı¯ä»¥å°Ŀè¯ķ": 6043,
      "orus": 6044,
      "ä¸ªäººä¿¡æģ¯": 6045,
      "Ġì": 6046,
      "æľīéĻĲ": 6047,
      "çĽĲåĴĮ": 6048,
      "æİ¥çĿĢ": 6049,
      "èģĬå¤©æľºåĻ¨äºº": 6050,
      "ãĢį": 6051,
      "ä¿ĿçķĻ": 6052,
      "æī¿æĭħ": 6053,
      "æĺ¯ä¸Ģæ¬¾": 6054,
      "èĤł": 6055,
      "åĴĮåĪĽæĸ°": 6056,
      "åĪ«äºº": 6057,
      "æ£ĭ": 6058,
      "æĬµ": 6059,
      "éħįæĸĻ": 6060,
      "èµ¢å¾Ĺ": 6061,
      "äººå·¥æĻºèĥ½åĴĮ": 6062,
      "Ġel": 6063,
      "anc": 6064,
      "è°ĥçĶ¨": 6065,
      "æīĢéľĢçļĦ": 6066,
      "éĢļçŁ¥": 6067,
      "å¾®é£İ": 6068,
      "Ġsuch": 6069,
      "äººæĢ§": 6070,
      "å°ıçĭĹ": 6071,
      "åı¯ä»¥å¸®åĬ©äººä»¬": 6072,
      "äº«çĶ¨": 6073,
      "èĺĳ": 6074,
      "input": 6075,
      "å¸ĤåľºèĲ¥éĶĢ": 6076,
      "å®¶åºŃæĪĲåĳĺ": 6077,
      "ãĢĭï¼Į": 6078,
      "ull": 6079,
      "æ®ĭ": 6080,
      "Ġfact": 6081,
      "åĢ¾åĲ¬": 6082,
      "ä½Ĩä¸į": 6083,
      "æĿĲè´¨": 6084,
      "éĢĻäºĽ": 6085,
      "ç§ĳæĻ®æĸĩç«ł": 6086,
      "count": 6087,
      "åĲĮæĹ¶ä¹Łåı¯ä»¥": 6088,
      "Ġstart": 6089,
      "åľ°ä¸Ĭ": 6090,
      "å¸®æĪĳæĥ³": 6091,
      "æķ°åŃĹçļĦ": 6092,
      "åĸ·": 6093,
      "ä¼łè¾ĵ": 6094,
      "çī¹åĪ«æĺ¯": 6095,
      "ä»¥ä¸ĭéĹ®é¢ĺ": 6096,
      "å°Ĭæķ¬": 6097,
      "çļĦæĦıè§ģ": 6098,
      "Ġä¸ª": 6099,
      "Ġ60": 6100,
      "å«Į": 6101,
      "æ°ıåº¦": 6102,
      "å®ĥå°Ĩ": 6103,
      "èİ±": 6104,
      "Ġpossible": 6105,
      "pro": 6106,
      "ä¸įå¤Ł": 6107,
      "æĻ¯è§Ĥ": 6108,
      "æĿİåįİ": 6109,
      "å²ģçļĦ": 6110,
      "çļĦçĭ¬": 6111,
      "çļĦç³ĸæŀľ": 6112,
      "ıè§Ī": 6113,
      "å¾Īéļ¾": 6114,
      "è¯ķè¯ķ": 6115,
      "ä¸ĵä¸ļçļĦ": 6116,
      "æĽ´åĩĨç¡®åľ°": 6117,
      "æıĲä¾ĽæĽ´å¥½çļĦ": 6118,
      "è°¢è°¢ä½ł": 6119,
      "çŃīå¤ļç§į": 6120,
      "çĶ¨æĪ·ä½ĵéªĮ": 6121,
      "èĨľ": 6122,
      "å¿ĥä¸Ń": 6123,
      "æ¯ıåĳ¨": 6124,
      "èĺĳèıĩ": 6125,
      "æĶ¾ç½®": 6126,
      "å¼ºåĮĸ": 6127,
      "quare": 6128,
      "ä¼ĺç§ĢçļĦ": 6129,
      "æĢ»ä½ĵ": 6130,
      "stem": 6131,
      "æŃ»äº¡": 6132,
      "çİ»çĴĥ": 6133,
      "éĸĭ": 6134,
      "çļĦå¤§å°ı": 6135,
      "çļĦä½ľçĶ¨": 6136,
      "æľīæĹ¶": 6137,
      "Ġwould": 6138,
      "ä»İä»¥ä¸ĭ": 6139,
      "æľīæĹ¶åĢĻ": 6140,
      "è¿Ľåº¦": 6141,
      "èĻ¾": 6142,
      "dd": 6143,
      "å¹¶ç»Ļåĩº": 6144,
      "æĪĸæľįåĬ¡": 6145,
      "impl": 6146,
      "éħįç½®": 6147,
      "å²Ĺ": 6148,
      "pi": 6149,
      "æĽ´æį¢": 6150,
      "èĬ¬": 6151,
      "ä¸Ģåħ±æľī": 6152,
      "æĵ¦": 6153,
      "å¹²åĩĢ": 6154,
      "ength": 6155,
      "éĽĨæĪĲ": 6156,
      "feren": 6157,
      "éľĢè¦ģæĪĳä»¬": 6158,
      "ä»ģ": 6159,
      "aly": 6160,
      "å¾Īå¤§çļĦ": 6161,
      "çİĩåĴĮ": 6162,
      "Ð¾Ð": 6163,
      "å½¢å®¹è¯į": 6164,
      "Ġè¿Ļ": 6165,
      "äºİæĺ¯": 6166,
      "ä¸īç§į": 6167,
      "çļĦçĬ¶æĢģ": 6168,
      "é¢Ī": 6169,
      "å¦ĩ": 6170,
      "åĮħå®¹": 6171,
      "Ġshe": 6172,
      "çŃīå¤ļä¸ª": 6173,
      "ä¹ĲæĦı": 6174,
      "éĽķ": 6175,
      "å¸¦æĿ¥çļĦ": 6176,
      "é¡µéĿ¢": 6177,
      "æĪĳå·²ç»ı": 6178,
      "æķĻæİĪ": 6179,
      "æıĲåıĸåĩº": 6180,
      "éĨī": 6181,
      "ude": 6182,
      "äººå·¥æĻºèĥ½åľ¨åĮ»çĸĹé¢ĨåŁŁ": 6183,
      "å¹¿éĺĶ": 6184,
      "æŃ£å¼ı": 6185,
      "ä¼ļæľī": 6186,
      "å¯¼æ¼Ķ": 6187,
      "ä¸Ńä½¿çĶ¨": 6188,
      "è®°ä½ı": 6189,
      "çľŁæŃ£çļĦ": 6190,
      "çļĦæ¤į": 6191,
      "What": 6192,
      "åŃĶ": 6193,
      "è®¯": 6194,
      "åįģå¹´": 6195,
      "çļĦæĢĿç»´": 6196,
      "ä¸ĢçĤ¹": 6197,
      "æĶ¯åĩº": 6198,
      "æµ·å¹³éĿ¢": 6199,
      "å¸Ĥåľºä¸Ĭ": 6200,
      "...": 6201,
      "å½¢æĢģ": 6202,
      "æļĤ": 6203,
      "ç»ıèĲ¥": 6204,
      "éĢĶå¾Ħ": 6205,
      "300": 6206,
      "æĿ¥çļĦ": 6207,
      "çļĦçĮ": 6208,
      "å»ºç«ĭä¸Ģä¸ª": 6209,
      "æĤ¨åı¯ä»¥åľ¨": 6210,
      "çĶŁåĬ¨": 6211,
      "çļĦåĲįåŃĹ": 6212,
      "çĭĲçĭ¸": 6213,
      "led": 6214,
      "ause": 6215,
      "æĪĲçĨŁ": 6216,
      "çĶ¢": 6217,
      "ug": 6218,
      "æĪĳå»ºè®®": 6219,
      "\")": 6220,
      "åºĦ": 6221,
      "Options": 6222,
      "ĠåĬłåħ¥": 6223,
      "ä¸Ģçīĩ": 6224,
      "å¤§è§Ħæ¨¡": 6225,
      "åħµ": 6226,
      "ç«ŀ": 6227,
      "è¿ĻäºĽæĬĢæľ¯": 6228,
      "orm": 6229,
      "ural": 6230,
      "IT": 6231,
      "è¿ĻäºĽä¿¡æģ¯": 6232,
      "æķĮ": 6233,
      "ä½ľå®¶": 6234,
      "æ¤ħ": 6235,
      "light": 6236,
      "æĹ¥çĽĬ": 6237,
      "å¯¹åħ¶": 6238,
      "æĸĩæľ¬åĨħå®¹": 6239,
      "èĤīç±»": 6240,
      "åĴĮç»ıæµİ": 6241,
      "æī¿åıĹ": 6242,
      "é¬": 6243,
      "çİ©èĢį": 6244,
      "æĪĳä»¬ä¹Ł": 6245,
      "ä¹ĺä»¥": 6246,
      "ä½Ĩå®ĥ": 6247,
      "ings": 6248,
      "ä¹°äºĨ": 6249,
      "å¤ĩçĶ¨": 6250,
      "ween": 6251,
      "ä¸ºäººç±»": 6252,
      "å®¶åĽŃ": 6253,
      "çļĦæķ°åŃĹ": 6254,
      "çĶŁæĢģçİ¯å¢ĥ": 6255,
      "æĽ´æĶ¹": 6256,
      "æĽ´é«ĺçļĦ": 6257,
      "Ġ200": 6258,
      "æĢģåº¦": 6259,
      "åºŁå¼ĥ": 6260,
      "ful": 6261,
      "è·¯ä¸Ĭ": 6262,
      "æııè¿°äºĨ": 6263,
      "æĹĭè½¬": 6264,
      "åģļèµ·": 6265,
      "æĹ¦": 6266,
      "Ġ24": 6267,
      "åķĨåºĹ": 6268,
      "éŃħåĬĽ": 6269,
      "Ġexpl": 6270,
      "æµ´": 6271,
      "æĺ¯åĽłä¸º": 6272,
      "åħ¶å®ŀ": 6273,
      "ä¿ĿæĮģåģ¥åº·": 6274,
      "æĪĺçķ¥": 6275,
      "æ½ľåĬĽ": 6276,
      "åķıé¡Į": 6277,
      "åĩºåıĳ": 6278,
      "çĽ¸äºĴä½ľçĶ¨": 6279,
      "æµĵéĥģ": 6280,
      "æµħ": 6281,
      "åħ³éĶ®ä¿¡æģ¯": 6282,
      "åľ¨è¿Ļç§į": 6283,
      "èĬĤçľģ": 6284,
      "è´¸æĺĵ": 6285,
      "è¿ĩæ»¤": 6286,
      "Ġstud": 6287,
      "ç¾İåĳ³çļĦ": 6288,
      "Ġind": 6289,
      "Chorus": 6290,
      "æĽ´æ·±åħ¥": 6291,
      "åĬ¨çĶ»": 6292,
      "è¾ĥä¸º": 6293,
      "æł¸å¿ĥ": 6294,
      "æĺİäº®": 6295,
      "èĩ³åħ³éĩįè¦ģ": 6296,
      "ä¸ºæĪĳä»¬": 6297,
      "èī³": 6298,
      "Ġproblem": 6299,
      "èĻİ": 6300,
      "Ġcorrect": 6301,
      "ç½©": 6302,
      "åŃĺåľ¨ä¸ĢäºĽ": 6303,
      "çļĦéķ¿åº¦": 6304,
      "æĹģ": 6305,
      "æĹ¶éĹ´ç®¡çĲĨ": 6306,
      "æĮĳæĪĺåĴĮ": 6307,
      "æ¯ıä¸Ģä¸ª": 6308,
      "è®¸å¤ļäºº": 6309,
      "å±±èĦī": 6310,
      "ä¼ģä¸ļå®¶": 6311,
      "Ġä¸Ń": 6312,
      "ä¸ĭä¸Ģä¸ª": 6313,
      "è¨Ń": 6314,
      "å±±å³°": 6315,
      "èĥ¡èĲĿåįľ": 6316,
      "rown": 6317,
      "å£³": 6318,
      "æĬĵ": 6319,
      "çĥ¦": 6320,
      "è£ħä¿®": 6321,
      "Ġstr": 6322,
      "çļĦåıĳçĶŁ": 6323,
      "åĴĮä¸Ģä¸ª": 6324,
      "è¡¨è¾¾å¼ı": 6325,
      "Ġusing": 6326,
      "åĵĪåĪ©": 6327,
      "åİ¨æĪ¿": 6328,
      "åĴĮçİ¯å¢ĥ": 6329,
      "çļĦæ°´æŀľ": 6330,
      "éĢļè¿ĩå¯¹": 6331,
      "è§Ĥçľĭ": 6332,
      "å¥³çĶŁ": 6333,
      "æ·ĩ": 6334,
      "å¤ĸéĥ¨": 6335,
      "æĲħæĭĮåĿĩåĮĢ": 6336,
      "éĤĢè¯·": 6337,
      "çļĦç¾İä¸½": 6338,
      "cent": 6339,
      "Ġtyp": 6340,
      "cur": 6341,
      "æĤ¨åľ¨": 6342,
      "æīĭè¡¨": 6343,
      "ĠAn": 6344,
      "èīºæľ¯åĵģ": 6345,
      "çļĦè¯Ŀé¢ĺ": 6346,
      "ç»ĻæĪĳä¸Ģä¸ª": 6347,
      "æ·ĩæ·ĭ": 6348,
      "æĢ§è´¨": 6349,
      "æĸ°äº§åĵģ": 6350,
      "å¥¶éħª": 6351,
      "æĺ¯éĿŀå¸¸": 6352,
      "ä¸įçĶ¨": 6353,
      "èģļä¼ļ": 6354,
      "èĢĲå¿ĥ": 6355,
      "æĪĸç¼º": 6356,
      "éĿ©åĳ½": 6357,
      "çļĦä¸įåĲĮ": 6358,
      "éŁ©": 6359,
      "å®ĥä»¬åľ¨": 6360,
      "çĳ°": 6361,
      "åĨ°æ·ĩæ·ĭ": 6362,
      "Ġpeople": 6363,
      "æĪĲç«ĭ": 6364,
      "ä½Ĩåľ¨": 6365,
      "æĢ»ç»Ł": 6366,
      "è£Ĥ": 6367,
      "olog": 6368,
      "åı¯çĪ±": 6369,
      "éĩĩåıĸæİªæĸ½": 6370,
      "Ġwho": 6371,
      "çļĦæİ¢": 6372,
      "ä¸Ģåı¥": 6373,
      "å¦Ĥæŀľä½łæĥ³": 6374,
      "åĲĪçĲĨçļĦ": 6375,
      "èĥĥ": 6376,
      "çļĦæĳĺè¦ģ": 6377,
      "éĩįåĨĻ": 6378,
      "ç¿»çĤĴ": 6379,
      "éĢĲæŃ¥": 6380,
      "\"\"": 6381,
      "hen": 6382,
      "éĩįè¦ģçļĦä½ľçĶ¨": 6383,
      "åħ¶ä¸ŃåĮħæĭ¬": 6384,
      "Ġknow": 6385,
      "æĺ¯ä¸į": 6386,
      "Ġinv": 6387,
      "æīĵéĢł": 6388,
      "fter": 6389,
      "ç¬Ķè®°": 6390,
      "29": 6391,
      "ä¼ļåľ¨": 6392,
      "èĥ½å¤Łå¸®åĬ©": 6393,
      "ĠTh": 6394,
      "åĮĸçŁ³": 6395,
      "ä¸ªäººçļĦ": 6396,
      "llo": 6397,
      "ä»¥ä¾¿æĽ´å¥½åľ°": 6398,
      "ä»¥åħ¶": 6399,
      "å¼Ł": 6400,
      "æ¼ł": 6401,
      "æĿ¥åĪ°": 6402,
      "å¹´ä»½": 6403,
      "çĽ®çļĦæĺ¯": 6404,
      "èº«è¾¹": 6405,
      "çļĦæ¡": 6406,
      "æķ´çĲĨ": 6407,
      "%ãĢĤ": 6408,
      "ç»³": 6409,
      "éļ¾åº¦": 6410,
      "èħ¹": 6411,
      "å¯¦": 6412,
      "Ġmark": 6413,
      "æĪĳæĥ³è¦ģ": 6414,
      "å¸¦æľī": 6415,
      "æ¸©é¦¨": 6416,
      "æľīçĽĬ": 6417,
      "èĩªåĬ¨é©¾é©¶æ±½è½¦": 6418,
      "Ġent": 6419,
      "åĪĽæĸ°åĴĮ": 6420,
      "fore": 6421,
      "é²¸": 6422,
      "éº¼": 6423,
      "åįĬå¾Ħ": 6424,
      "éģĹä¼ł": 6425,
      "è¢«è§Ĩä¸º": 6426,
      "æĿ°åħĭ": 6427,
      "åłĨ": 6428,
      "çļĦæ¸©åº¦": 6429,
      "çļĦèĬ±": 6430,
      "é¢¨": 6431,
      "ðŁ": 6432,
      "æĹħç¨ĭ": 6433,
      "åł´": 6434,
      "à¨": 6435,
      "ics": 6436,
      "çļĦæĻ®": 6437,
      "Ġcomple": 6438,
      "æĪĳä»¬å¿ħé¡»": 6439,
      "ä¼ļå½±åĵį": 6440,
      "enc": 6441,
      "å¯Ĥ": 6442,
      "very": 6443,
      "å¤§å¤§": 6444,
      "çĶ·çĶŁ": 6445,
      "åĿļæŀľ": 6446,
      "angu": 6447,
      "Ġincl": 6448,
      "isa": 6449,
      "è¯·å¸®æĪĳ": 6450,
      "aking": 6451,
      "33": 6452,
      "æĥĳ": 6453,
      "é£İæļ´": 6454,
      "æ¸ħæ¥ļ": 6455,
      "çŁŃæĸĩ": 6456,
      "éĢĨ": 6457,
      "æĪĳä»¬çļĦäº§åĵģ": 6458,
      "Ġchar": 6459,
      "æľĢä½İ": 6460,
      "æĴŀ": 6461,
      "çĪ¶æ¯į": 6462,
      "å®¢äºº": 6463,
      "åĽ¾æ¡Ī": 6464,
      "çĸ¼": 6465,
      "Ġbl": 6466,
      "Ġmake": 6467,
      "æĿĥçĽĬ": 6468,
      "Ġbook": 6469,
      "Ġtell": 6470,
      "æķ°æĺ¯": 6471,
      "åı¯èĥ½ä¼ļå¯¹": 6472,
      "çĵ£": 6473,
      "ically": 6474,
      "æ¨¡æĭŁäººç±»": 6475,
      "çļĦé¢ĨåŁŁ": 6476,
      "åľ°éľĩ": 6477,
      "ä¸¾è¡Į": 6478,
      "çļĦéľĢæ±ĤåĴĮ": 6479,
      "çĥŃçĪ±": 6480,
      "rap": 6481,
      "å°ıåĿĹ": 6482,
      "çĭĤ": 6483,
      "è¾Ĳ": 6484,
      "ĠTo": 6485,
      "éĻĲäºİ": 6486,
      "æķ°æį®ä¸Ń": 6487,
      "å¿«éĢŁåıĳå±ķ": 6488,
      "çļĦéĢŁåº¦": 6489,
      "æ³¥": 6490,
      "å½±çīĩ": 6491,
      "è¿ĻäºĽéĥ½æĺ¯": 6492,
      "çĶŁæ´»çļĦ": 6493,
      "æģĴæĺŁ": 6494,
      "çļĦç¡": 6495,
      "å¦Ĥä½ķä½¿çĶ¨": 6496,
      "æĪĳçĽ¸ä¿¡": 6497,
      "æĺ¯ä¸Ģå®¶": 6498,
      "é½Ĳ": 6499,
      "çĲĥåĳĺ": 6500,
      "Ġbetween": 6501,
      "çī©åĴĮ": 6502,
      "èħ»": 6503,
      "ä¹Į": 6504,
      "å¹¶è¿ĶåĽŀ": 6505,
      "æ¶Īæģ¯": 6506,
      "æľ¯è¯Ń": 6507,
      "åĲĪæĪĲ": 6508,
      "åįĩçº§": 6509,
      "ade": 6510,
      "br": 6511,
      "èº«é«ĺ": 6512,
      "Ġinter": 6513,
      "27": 6514,
      "St": 6515,
      "åīµ": 6516,
      "çĩĥçĥ§": 6517,
      "æĭľ": 6518,
      "æµıè§Ī": 6519,
      "Ġdist": 6520,
      "åĽŀåĪ°": 6521,
      "stit": 6522,
      "æİ¥ç§į": 6523,
      "ç®Ģçº¦": 6524,
      "æĪĲåĬŁåľ°": 6525,
      "å¤®": 6526,
      "ä½ľä¸ºä¸ĢåĲį": 6527,
      "åĳĪçİ°åĩº": 6528,
      "åıī": 6529,
      "ets": 6530,
      "é«ĺçº§": 6531,
      "Ġcol": 6532,
      "hile": 6533,
      "ä»¥æĿ¥": 6534,
      "å§»": 6535,
      ">>": 6536,
      "åı¯ä»¥ä½¿": 6537,
      "Ġrep": 6538,
      "çģ«æĺŁ": 6539,
      "Ġrequ": 6540,
      "å±ŀæĢ§": 6541,
      "ä¸įåı¯æĪĸç¼º": 6542,
      "Ġpar": 6543,
      "é¼»": 6544,
      "èĥľåĪ©": 6545,
      "æİ¢è®¨äºĨ": 6546,
      "åĢ¼å¾Ĺä¸Ģ": 6547,
      "åĲĦä¸ªé¢ĨåŁŁ": 6548,
      "çĲĨæĥ³": 6549,
      "æº¯": 6550,
      "åİĨåı²ä¸Ĭ": 6551,
      "26": 6552,
      "æĽ´é«ĺæķĪ": 6553,
      "ç»ĻäºĨ": 6554,
      "é¡ŀ": 6555,
      "ä¼¦æķ¦": 6556,
      "èĩĤ": 6557,
      "æ´Ĵ": 6558,
      "å®Ŀå®Ŀ": 6559,
      "åľĨçļĦ": 6560,
      "ç¶ĵ": 6561,
      "äººå·¥æĻºèĥ½çļĦåºĶçĶ¨": 6562,
      "Ġstring": 6563,
      "æĹ¶éĹ´åĨħ": 6564,
      "ook": 6565,
      "ĠX": 6566,
      "ç¢ĳ": 6567,
      "æ¯ıä¸ªäººçļĦ": 6568,
      "çıįæĥľ": 6569,
      "å¦»": 6570,
      "ä¸Ģåı¥è¯Ŀ": 6571,
      "æł·æľ¬": 6572,
      "ãģĻ": 6573,
      "ä¸ĬéĿ¢çļĦéĹ®é¢ĺ": 6574,
      "è¾Ĳå°Ħ": 6575,
      "æİ¨è¿Ľ": 6576,
      "æľīå¤ļå°ĳ": 6577,
      "als": 6578,
      "Ġday": 6579,
      "æĮĳ": 6580,
      "Ġthese": 6581,
      "è®¤åı¯": 6582,
      "çļĦåįķè¯į": 6583,
      "åĽŀçŃĶä¸ĬéĿ¢çļĦéĹ®é¢ĺ": 6584,
      "è´¢å¯Į": 6585,
      "mise": 6586,
      "çļĦåĬ¨çī©": 6587,
      "åľ°çĲĨ": 6588,
      "å»ºéĢł": 6589,
      "åĲ¦åĪĻ": 6590,
      "éĽĩ": 6591,
      "é¥±": 6592,
      "ä¸ĭçļĦ": 6593,
      "å®ĥåľ¨": 6594,
      "åĮħè£ħ": 6595,
      "å¥¶æ²¹": 6596,
      "çļĦçł´": 6597,
      "rite": 6598,
      "ek": 6599,
      "çĽ¸çŃī": 6600,
      "æ¯ıå¹´": 6601,
      "åĽŀçŃĶè¿Ļä¸ªéĹ®é¢ĺ": 6602,
      "ied": 6603,
      "æľ¬è´¨": 6604,
      "çĶľçĤ¹": 6605,
      "åĭ¤": 6606,
      "çļĦæĮĩå¯¼": 6607,
      "æĤ£èĢħçļĦ": 6608,
      "Ġwhen": 6609,
      "åģ·": 6610,
      "SQL": 6611,
      "Ġleast": 6612,
      "æĽ´å¿«åľ°": 6613,
      "48": 6614,
      "éĩıåĴĮ": 6615,
      "çŃĽéĢī": 6616,
      "æŃ¥è¡Į": 6617,
      "çļĦä¾ĭåŃĲ": 6618,
      "æ´ª": 6619,
      "Ġcount": 6620,
      "å¾·åĽ½": 6621,
      "èĨĢ": 6622,
      "åıĭå¥½": 6623,
      "å¯¼èĩ´äºĨ": 6624,
      "åı¯è§ĨåĮĸ": 6625,
      "èħ°": 6626,
      "NN": 6627,
      "çļĦåħī": 6628,
      "æĪĸæĺ¯": 6629,
      "èĶ¬èıľåĴĮ": 6630,
      "çİ¯å¢ĥä¸Ń": 6631,
      "è®°å¾Ĺ": 6632,
      "lish": 6633,
      "å¯ĵ": 6634,
      "åľ°åĽ¾": 6635,
      "å©´åĦ¿": 6636,
      "Ã¡": 6637,
      "æĺ¯æĪĳ": 6638,
      "air": 6639,
      "äºĨä¸Ģç§į": 6640,
      "çļĦçĤ": 6641,
      "Google": 6642,
      "ä¸§": 6643,
      "ç´łé£Ł": 6644,
      "çĥĤ": 6645,
      "ç¤¼çī©": 6646,
      "Ġè®¡ç®Ĺ": 6647,
      "ä»£è°¢": 6648,
      "å¸¦æĿ¥æĽ´å¤ļçļĦ": 6649,
      "åĪ¶éĢłä¸ļ": 6650,
      "ä¹Łä¸į": 6651,
      "åĽºå®ļ": 6652,
      "ä¹ĭæĹħ": 6653,
      "è´¾": 6654,
      "åħ³éĶ®åŃĹ": 6655,
      "åľŁè±Ĩ": 6656,
      "ĠYour": 6657,
      "ä¸Ģä¸ªéĹ®é¢ĺ": 6658,
      "Ġmult": 6659,
      "å©ļå§»": 6660,
      "word": 6661,
      "ç»Īäºİ": 6662,
      "è´¢äº§": 6663,
      "äºĳè®¡ç®Ĺ": 6664,
      "åī©ä½Ļ": 6665,
      "ik": 6666,
      "çļĦçī¹å¾ģ": 6667,
      "åĴĮåĨ³çŃĸ": 6668,
      "éģ¥": 6669,
      "Ġ\\),": 6670,
      "å®¶éĩĮ": 6671,
      "åĩıåİ»": 6672,
      "çļĦå½¢å¼ı": 6673,
      "æİ¥è¿ĳ": 6674,
      "çļĦç¿": 6675,
      "Ġdata": 6676,
      "æĭĵå±ķ": 6677,
      "æķħéļľ": 6678,
      "å¦Ĥä½ķåĪ¶ä½ľ": 6679,
      "Ġref": 6680,
      "æĭ¥åłµ": 6681,
      "çİ°åľº": 6682,
      "æĢİä¹ĪåĬŀ": 6683,
      "æİ¥æĶ¶": 6684,
      "ä»»åĬ¡çļĦ": 6685,
      "sort": 6686,
      "ä»£æĽ¿": 6687,
      "éļĲç§ģä¿ĿæĬ¤": 6688,
      "æ¯ıä¸Ģ": 6689,
      "åİĨç¨ĭ": 6690,
      "ä¸ĵéĹ¨": 6691,
      "æľīäºĽäºº": 6692,
      "ä»¥åħį": 6693,
      "ç»ıéªĮåĴĮ": 6694,
      "Script": 6695,
      "ä»İå°ı": 6696,
      "åĩºçİ°äºĨ": 6697,
      "á»": 6698,
      "æĪ¶": 6699,
      "æĥ§": 6700,
      "Tr": 6701,
      "ä¸ĸçķĮä¸Ĭ": 6702,
      "çĬ¹": 6703,
      "150": 6704,
      "æĪ·å¤ĸæ´»åĬ¨": 6705,
      "æĸ¹æ³ķæĿ¥": 6706,
      "æĶ¿åºľåĴĮ": 6707,
      "æĦĪ": 6708,
      "åı¯æĮģç»ŃæĢ§": 6709,
      "éĿŀæ´²": 6710,
      "ç»ŃåĨĻ": 6711,
      "åį±å®³": 6712,
      "ĠQ": 6713,
      "çļĦæİ¨çĲĨ": 6714,
      "//": 6715,
      "ities": 6716,
      "æĪĳè¦ģ": 6717,
      "æıĲé«ĺçĶŁäº§": 6718,
      "Ġplay": 6719,
      "He": 6720,
      "ãĢĤï¼Ī": 6721,
      "Ġspecific": 6722,
      "çĶ¨æ°´": 6723,
      "è¿Ļåº§": 6724,
      "å¯º": 6725,
      "ä½łæľī": 6726,
      "èĸ¯": 6727,
      "æ¶Īæŀģ": 6728,
      "äººå¿ĥ": 6729,
      "ä¸įéĢĤ": 6730,
      "ä¿ĿåŃĺ": 6731,
      "å¸¸çĶ¨": 6732,
      "åľĨå½¢": 6733,
      "è°·æŃĮ": 6734,
      "åıł": 6735,
      "åĭĻ": 6736,
      "ient": 6737,
      "Ġact": 6738,
      "Ġmust": 6739,
      "è°ĥæĸĻ": 6740,
      "ef": 6741,
      "æľºæ¢°": 6742,
      "åįĩé«ĺ": 6743,
      "çļĦæ³¨æĦı": 6744,
      "çļĦå£°éŁ³": 6745,
      "åĸľçĪ±": 6746,
      "å²Ĺä½į": 6747,
      "å¼¯": 6748,
      "å®¶æĹı": 6749,
      "ives": 6750,
      "åĳ¨éķ¿": 6751,
      "çļĦæ¨¡åŀĭ": 6752,
      "Ġsides": 6753,
      "éŁ§": 6754,
      "éŁµ": 6755,
      "åĽ¾ä¹¦": 6756,
      "é¤Ĳé¦Ĩ": 6757,
      "å¦Ĥæŀľä½łåĸľæ¬¢": 6758,
      "å¤¹": 6759,
      "å¼Ĺ": 6760,
      "å¼Ģå¿ĥ": 6761,
      "åı£åı·": 6762,
      "æľīæ°§è¿ĲåĬ¨": 6763,
      "åıĹåĪ°äºĨ": 6764,
      "èħĬ": 6765,
      "èĬĤçĽ®": 6766,
      "èĮ¨": 6767,
      "ä¸Ģç¯ĩæĸĩç«ł": 6768,
      "irc": 6769,
      "Ġoriginal": 6770,
      "Ġexpress": 6771,
      "æµ·è¾¹": 6772,
      "æĸĩåĮĸçļĦ": 6773,
      "æľĢåĸľæ¬¢": 6774,
      "éªĹ": 6775,
      "ä¹ĲåĻ¨": 6776,
      "Ġgre": 6777,
      "éĿŀæ³ķ": 6778,
      "å¤±ä¸ļ": 6779,
      "åĢ¾åĲĳ": 6780,
      "è»": 6781,
      "Ġ\\\\": 6782,
      "çļĦæİĴæĶ¾": 6783,
      "å¥Ķ": 6784,
      "erg": 6785,
      "çļĦæĢĿæĥ³": 6786,
      "SE": 6787,
      "è¾¾æĪĲ": 6788,
      "Ġinput": 6789,
      "èĿ´": 6790,
      "åĴĮå¯¹": 6791,
      "çļĦåĲįç§°": 6792,
      "åľ¨è¿ĩåİ»": 6793,
      "æĪĳä»¬åħ¬åı¸": 6794,
      "itive": 6795,
      "æ¸ħçĲĨ": 6796,
      "æľīä¸Ģå¤©": 6797,
      "è¿ĩå¤ļ": 6798,
      "ç¨¿": 6799,
      "æ°´åĪĨ": 6800,
      "è¿Ļæĺ¯ä¸Ģç§į": 6801,
      "è¿Ľç¨ĭ": 6802,
      "æĽ´å¤§çļĦ": 6803,
      "å°±èĥ½": 6804,
      "åĮ»åŃ¦å½±åĥı": 6805,
      "ock": 6806,
      "Ġincre": 6807,
      "èĲ¥éĢł": 6808,
      "çļĦæĵ": 6809,
      "ç©·": 6810,
      "çĤ¹åĩ»": 6811,
      "Ġ$\\": 6812,
      "Ġtext": 6813,
      "ä¼ģä¸ļçļĦ": 6814,
      "èĿ´èĿ¶": 6815,
      "åĩ¯": 6816,
      "æĭĴ": 6817,
      "ç´łè´¨": 6818,
      "áŀ": 6819,
      "æĺ¯è°ģ": 6820,
      "æº¶": 6821,
      "çļĦæ»": 6822,
      "æĭħä»»": 6823,
      "ä¹ŁéĿŀå¸¸": 6824,
      "æ¯ķä¸ļ": 6825,
      "éĻªä¼´": 6826,
      "è®¾è®¡åĴĮ": 6827,
      "ä½łæĥ³": 6828,
      "éļ¾å¿ĺ": 6829,
      "çļĦè¡¨çİ°": 6830,
      "æĻºèĥ½æīĭæľº": 6831,
      "è¯·è¾ĵåħ¥": 6832,
      "éĽĨåĲĪ": 6833,
      "åħ´è¶£çĪ±å¥½": 6834,
      "åĴĮæľĭåıĭ": 6835,
      "é±¼ç±»": 6836,
      "åĪĨæķ°": 6837,
      "ä¸»è¯Ń": 6838,
      "å¹²çĩ¥": 6839,
      "Ġlet": 6840,
      "the": 6841,
      "åĲįåı«": 6842,
      "ç§ĳæĬĢåıĳå±ķ": 6843,
      "åĮĹæŀģ": 6844,
      "Ġdire": 6845,
      "Ġmat": 6846,
      "åħ³æ³¨åĴĮ": 6847,
      "è¡Ģç®¡": 6848,
      "åĬ£": 6849,
      "è¶ħå¸Ĥ": 6850,
      "åĩĨå¤ĩå¥½": 6851,
      "å¯»æ±Ĥå¸®åĬ©": 6852,
      "ures": 6853,
      "zy": 6854,
      "ices": 6855,
      "æĬ¹": 6856,
      "uring": 6857,
      "æĸ°æĬĢæľ¯": 6858,
      "èĬĤçĤ¹": 6859,
      "éļ¾é¢ĺ": 6860,
      "çļĦåĲ«ä¹ī": 6861,
      "çŁ¿çī©è´¨": 6862,
      "Ġ,": 6863,
      "åı¯ä»¥éĢļè¿ĩåĪĨæŀĲ": 6864,
      "äººä»¬å¯¹": 6865,
      "å½Ĵç±»ä¸º": 6866,
      "å»ºèŃ°": 6867,
      "åĴĮå°ı": 6868,
      "è¯Ńæ³ķéĶĻè¯¯": 6869,
      "çļĦæĻ¯çĤ¹": 6870,
      "æ´»åĬĽ": 6871,
      "æħĪ": 6872,
      "åħ¨çĲĥèĮĥåĽ´åĨħ": 6873,
      "ç©¿è¶Ĭ": 6874,
      "éĹ®çŃĶ": 6875,
      "æıĲé«ĺäºĨ": 6876,
      "åĪĽæĸ°çļĦ": 6877,
      "é»ĳèĥ¡æ¤Ĵ": 6878,
      "éªĳèĩªè¡Įè½¦": 6879,
      "ç¿ħ": 6880,
      "ä¸īè§Ĵå½¢": 6881,
      "äººç¾¤": 6882,
      "å¤§éĩıçļĦæķ°æį®": 6883,
      "ç½²": 6884,
      "é£İåħī": 6885,
      "ew": 6886,
      "æľĪä»½": 6887,
      "çļĦå°ıè¯´": 6888,
      "éĿ¢æĿ¡": 6889,
      "åºĶè¯¥å¦Ĥä½ķ": 6890,
      "åľ°åĮºçļĦ": 6891,
      "Ġbu": 6892,
      "é¹ħ": 6893,
      "æĪĲè¯Ń": 6894,
      "ä½łèĥ½åĳĬè¯īæĪĳ": 6895,
      "éĢłæĪĲäºĨ": 6896,
      "åħ¥æīĭ": 6897,
      "é¡ºåĪ©": 6898,
      "Ġjust": 6899,
      "èĤĸ": 6900,
      "è¿½æº¯": 6901,
      "hesis": 6902,
      "å¹½é»ĺ": 6903,
      "çļĦæķĪçİĩåĴĮ": 6904,
      "çļĦæĲ": 6905,
      "ä¸ĵä¸ļäººå£«": 6906,
      "çļĦæ±¡æŁĵ": 6907,
      "ery": 6908,
      "ork": 6909,
      "äºļæ´²": 6910,
      "ä½Ĩä¹Ł": 6911,
      "åºĻ": 6912,
      "çİ«": 6913,
      "æĪĺæĸĹ": 6914,
      "åĴĮæķĻèĤ²": 6915,
      "éĿ¢åĽ¢": 6916,
      "çĥĺ": 6917,
      "æ¡¶": 6918,
      "çį": 6919,
      "éļıçĿĢæĬĢæľ¯çļĦ": 6920,
      "å®ŀéĻħæĥħåĨµ": 6921,
      "å«©": 6922,
      "åĲİæŀľ": 6923,
      "åĩłç§į": 6924,
      "ç«ŀäºīåĬĽ": 6925,
      "Lisa": 6926,
      "Ġä½ł": 6927,
      "ally": 6928,
      "è¯Ĺäºº": 6929,
      "æĳĦæ°ıåº¦": 6930,
      "å¨ľ": 6931,
      "è¡¥åħħ": 6932,
      "éĴ¢çĲ´": 6933,
      "çļĦçŃĶæ¡Ī": 6934,
      "ypot": 6935,
      "ä½ľä¸ļ": 6936,
      "çİ°éĩĳ": 6937,
      "çģ«è½¦": 6938,
      "åĴĮéģĵå¾·": 6939,
      "çĸĳéĹ®": 6940,
      "é¢ĦæľŁ": 6941,
      "ular": 6942,
      "Ġdef": 6943,
      "iss": 6944,
      "åĩıèĤ¥": 6945,
      "ator": 6946,
      "éĽ¾": 6947,
      "ä¸ŃåĽ½åı¤ä»£": 6948,
      "äººå·¥æĻºèĥ½æĬĢæľ¯çļĦåıĳå±ķ": 6949,
      "Phone": 6950,
      "åĪ°çļĦ": 6951,
      "ä¸İäººç±»": 6952,
      "åĹ¨": 6953,
      "ï¼Į\"": 6954,
      "ç«¹": 6955,
      "çħ®çĨŁ": 6956,
      "çİ«çĳ°": 6957,
      "åĬ¨æľº": 6958,
      "çļĦçł´åĿı": 6959,
      "ĸæģ¯": 6960,
      "æĮĩç¤º": 6961,
      "æ¢¯": 6962,
      "æ¯ĶèµĽä¸Ń": 6963,
      "èį¯çī©çłĶåıĳ": 6964,
      "èĪªç©º": 6965,
      "be": 6966,
      "æ³ī": 6967,
      "AIç³»ç»Ł": 6968,
      "ç§ĳæĬĢåĪĽæĸ°": 6969,
      "çļĦåīį": 6970,
      "æ°´åĮĸåĲĪçī©": 6971,
      "ç½ĳä¸Ĭ": 6972,
      "çļĦç¬ĳ": 6973,
      "è¿Ļåıª": 6974,
      "iqu": 6975,
      "äº¤æµģåĴĮ": 6976,
      "ä¿¡æģ¯åĴĮ": 6977,
      "å§Ķ": 6978,
      "Â²": 6979,
      "å±ħä½ı": 6980,
      "ä¸ĢæĹ¦": 6981,
      "çļĦæį": 6982,
      "æľĢå¤ļ": 6983,
      "åŀĤ": 6984,
      "è®¡ç®Ĺåĩº": 6985,
      "æĳĺ": 6986,
      "æľºåĻ¨åŃ¦ä¹łåĴĮ": 6987,
      "éŃĤ": 6988,
      "book": 6989,
      "è´·æ¬¾": 6990,
      "lst": 6991,
      "AIåľ¨": 6992,
      "Ġsm": 6993,
      "åħ·ä½ĵæĿ¥è¯´": 6994,
      "çļĦéĩįè¦ģç»ĦæĪĲéĥ¨åĪĨ": 6995,
      "çļĦç¨³": 6996,
      "æĺİäºĨ": 6997,
      "'ll": 6998,
      "çŁĽçĽ¾": 6999,
      "æĸĳ": 7000,
      "è¿Ļä¹Ł": 7001,
      "éģ©": 7002,
      "åĲ«éĩı": 7003,
      "æĹ©æľŁ": 7004,
      "ern": 7005,
      "åıįæĢĿ": 7006,
      "åľ°çĲĥä¸Ĭ": 7007,
      "è½¨éģĵ": 7008,
      "to": 7009,
      "ä½©": 7010,
      "åħ³å¿ĥ": 7011,
      "éĹ®é¢ĺåĴĮ": 7012,
      "å®ŀéĻħåºĶçĶ¨": 7013,
      "é¥¼å¹²": 7014,
      "åı¯ä»¥å¹«åĬ©": 7015,
      "ases": 7016,
      "ç¢³æİĴæĶ¾": 7017,
      "æĿ¥ç¡®å®ļ": 7018,
      "æĢĸ": 7019,
      "éĢĤéĩıçļĦ": 7020,
      "ç¦ıåĪ©": 7021,
      "alyz": 7022,
      "å¤ł": 7023,
      "äººåĬĽ": 7024,
      "Ġproduct": 7025,
      "å°ıé¸Ł": 7026,
      "çĶŁåĳ½çļĦ": 7027,
      "rough": 7028,
      "æ¯ıä¸ªäººéĥ½åºĶè¯¥": 7029,
      "å°¿çĹħ": 7030,
      "æ¸¯": 7031,
      "åĮ»çĸĹæľįåĬ¡": 7032,
      "åıĺå¾Ĺè¶ĬæĿ¥è¶Ĭ": 7033,
      "åĽŀå®¶": 7034,
      "ting": 7035,
      "èĤ©": 7036,
      "æĸĩåŃ¦ä½ľåĵģ": 7037,
      "çļĦæĹ¥": 7038,
      "åİ»éĻ¤": 7039,
      "éħįåĲĪ": 7040,
      "æĪĳä»¬åľ¨": 7041,
      "è®¤è¯ĨåĪ°": 7042,
      "èĤ¯å®ļ": 7043,
      "éľĢè¦ģä½¿çĶ¨": 7044,
      "è®¨è®ºäºĨ": 7045,
      "ä»¥åĩıå°ĳ": 7046,
      "æĲľç´¢å¼ķæĵİ": 7047,
      "Ġgener": 7048,
      "ä¼Ĺå¤ļ": 7049,
      "å¿ĺè®°": 7050,
      "æĬĳéĥģ": 7051,
      "`ï¼Į": 7052,
      "ä¹Łèĥ½": 7053,
      "äººå·¥æĻºèĥ½åľ¨åĮ»çĸĹ": 7054,
      "çīĩæ®µ": 7055,
      "Ġcur": 7056,
      "èº«ä½ĵçļĦ": 7057,
      "æĦŁæ¿Ģ": 7058,
      "ĠåĪ©çĶ¨": 7059,
      "éĤ»": 7060,
      "Ġwant": 7061,
      "å¾ŀ": 7062,
      "æłĩæ³¨": 7063,
      "æ¨¡ä»¿": 7064,
      "æĸ¯åĿ¦": 7065,
      "æµ·å¹³éĿ¢ä¸Ĭåįĩ": 7066,
      "And": 7067,
      "æĸ°åħ´": 7068,
      "ä¸ľäº¬": 7069,
      "å°±ä¸ļæľºä¼ļ": 7070,
      "åĪĨæĶ¯": 7071,
      "éĩįåĬĽ": 7072,
      "æĥħåĴĮ": 7073,
      "ä¸Ģæ¬¡æĢ§": 7074,
      "ä¼ĺç¾İ": 7075,
      "App": 7076,
      "æ§": 7077,
      "å®¶éķ¿": 7078,
      "å¯¹æľªæĿ¥": 7079,
      "å¯¼èĪª": 7080,
      "è¿Ļåı¯èĥ½": 7081,
      "è¿ĻäºĽæķ°æį®": 7082,
      "Ġconf": 7083,
      "ç±»ä¼¼äºİ": 7084,
      "è°¨æħİ": 7085,
      "åľ¨æŃ¤": 7086,
      "äººç±»æ´»åĬ¨": 7087,
      "eter": 7088,
      "çĶŁçĲĨ": 7089,
      "ä»ĸäººçļĦ": 7090,
      "åĢ¡": 7091,
      "è¯´è¯Ŀ": 7092,
      "å¤©æ°Ķé¢ĦæĬ¥": 7093,
      "ss": 7094,
      "åŀ«": 7095,
      "åħ¶ä»ĸäºº": 7096,
      "å¯¹æĤ¨æľīæīĢå¸®åĬ©": 7097,
      "å¤§è±¡": 7098,
      "çļĦéĺ³åħī": 7099,
      "å¾Į": 7100,
      "æĢ§æł¼": 7101,
      "å¸®åĬ©åĮ»çĶŁ": 7102,
      "ä»İä¸Ń": 7103,
      "åľ¨å®¶éĩĮ": 7104,
      "çĶ¨æĪ·è¾ĵåħ¥": 7105,
      "èģĮè´£": 7106,
      "åİĭåĬĽåĴĮçĦ¦èĻĳ": 7107,
      "æŁľ": 7108,
      "XXX": 7109,
      "çļĦæ¤įçī©": 7110,
      "31": 7111,
      "åıĳéŁ³": 7112,
      "å°ıæľĭåıĭ": 7113,
      "èĥĨ": 7114,
      "å«Įçĸĳ": 7115,
      "åĿĽ": 7116,
      "å¯¹å¾ħ": 7117,
      "Ġinteg": 7118,
      "å¤§äºİ": 7119,
      "ML": 7120,
      "æŁ¿": 7121,
      "çħ§é¡¾": 7122,
      "ä¸įæĸŃè¿ĽæŃ¥": 7123,
      "Ġcons": 7124,
      "çĽĳçĿ£åŃ¦ä¹ł": 7125,
      "ĠEng": 7126,
      "Ġjum": 7127,
      "éĺĲè¿°": 7128,
      "åĴĮä½ł": 7129,
      "let": 7130,
      "32": 7131,
      "åĽ½åĨħ": 7132,
      "ä»Ģéº¼": 7133,
      "å·²ç»ıåľ¨": 7134,
      "æĦŁåĪ°éĿŀå¸¸": 7135,
      "akes": 7136,
      "åĬłå·¥": 7137,
      "Ġthem": 7138,
      "èħº": 7139,
      "anguage": 7140,
      "è¿Ī": 7141,
      "åĬłåī§": 7142,
      "å»ºçŃĳçī©": 7143,
      "Ġè¿Ļä¸ª": 7144,
      "ķèī²": 7145,
      "å·¾": 7146,
      "æĸĩæľ¬è¿Ľè¡Į": 7147,
      "å±ķç¤ºäºĨ": 7148,
      "èĢĮå¼Ĥ": 7149,
      "åĲĦèĩª": 7150,
      "åŁºæľ¬çļĦ": 7151,
      "ä¸¾åĬŀ": 7152,
      "æľĢå¤§åĢ¼": 7153,
      "çµ±": 7154,
      "æķĻç»ĥ": 7155,
      "çļĦç©ºæ°Ķ": 7156,
      "å¤ĸæĺŁ": 7157,
      "ç®ĢåİĨ": 7158,
      "åĪĺ": 7159,
      "å®ĿèĹı": 7160,
      "ference": 7161,
      "ula": 7162,
      "ä¸¹": 7163,
      "åħ½": 7164,
      "å°ĸ": 7165,
      "æīİ": 7166,
      "çļĦä¸Ń": 7167,
      "çº¿ä¸Ĭ": 7168,
      "æĦıå¤ĸ": 7169,
      "Ġmod": 7170,
      "åĽ¾å½¢": 7171,
      "ä¿ĥéĶĢ": 7172,
      "æĩĴ": 7173,
      "Ġå®ļæľŁ": 7174,
      "ä½łæľīæ²¡æľī": 7175,
      "é¡¾éĹ®": 7176,
      "åĭĥ": 7177,
      "è¶ĬæĿ¥è¶Ĭå¤ļçļĦ": 7178,
      "ç³ĸå°¿çĹħ": 7179,
      "çļĦæ²Ļ": 7180,
      "çķĮéĿ¢": 7181,
      "Jack": 7182,
      "ane": 7183,
      "Ġoff": 7184,
      "çļĦæ¯Ķä¾ĭ": 7185,
      "æĹħæ¸¸æĻ¯çĤ¹": 7186,
      "æ³¢åĬ¨": 7187,
      "Ġquick": 7188,
      "ID": 7189,
      "åĩºçīĪ": 7190,
      "ä½łèĥ½ç»ĻæĪĳ": 7191,
      "æ¼Ĥäº®": 7192,
      "çļĦç¨³å®ļ": 7193,
      "åļ": 7194,
      "å¡ĳæĸĻè¢ĭ": 7195,
      "æĭįæĳĦ": 7196,
      "å¯¹ç¤¾ä¼ļ": 7197,
      "åħ¶ä»ĸçļĦ": 7198,
      "Ġå½ĵçĦ¶": 7199,
      "åĴĮç»´æĬ¤": 7200,
      "å¤ļå½©": 7201,
      "çĤİçĥŃ": 7202,
      "ĠæľĢåĲİ": 7203,
      "æĺ¯ä¸ª": 7204,
      "èĢĮä¸į": 7205,
      "åĨħåŃĺ": 7206,
      "log": 7207,
      "çļĦèĩªçĦ¶": 7208,
      "çĤī": 7209,
      "æĪĳä¸į": 7210,
      "é©±åĬ¨": 7211,
      "ç°": 7212,
      "Ġvari": 7213,
      "ĠÙ": 7214,
      "è¿Ļä½¿å¾Ĺ": 7215,
      "éĻĮ": 7216,
      "è¯Ńä¹ī": 7217,
      "Ġ\\]": 7218,
      "åĨĻä¸Ģé¦ĸ": 7219,
      "åĬ³åĬ¨": 7220,
      "è¿Ŀåıį": 7221,
      "ife": 7222,
      "å®³æĢķ": 7223,
      "à±": 7224,
      "æ³¢çī¹": 7225,
      "So": 7226,
      "Ġche": 7227,
      "å¿ĹæĦ¿èĢħ": 7228,
      "NL": 7229,
      "çĦ¶åĲİå°Ĩ": 7230,
      "è´Łæĭħ": 7231,
      "é£İæł¼åĴĮ": 7232,
      "éļĲç§ģåĴĮå®īåħ¨": 7233,
      "çĭ®åŃĲ": 7234,
      "åĩłå¹´": 7235,
      "ä»Ĭå¹´": 7236,
      "åľ¨è¿Ļç§įæĥħåĨµä¸ĭ": 7237,
      "çļĦä»£è¡¨": 7238,
      "å°ıç»Ħ": 7239,
      "æ¯Ķå¦Ĥè¯´": 7240,
      "Ġkey": 7241,
      "éĻ¶": 7242,
      "çĻĮçĹĩ": 7243,
      "è¡«": 7244,
      "åľ°äºĨè§£": 7245,
      "çļĦæĵįä½ľ": 7246,
      "æĽ´åħ·": 7247,
      "æĮ«": 7248,
      "æľĪäº®": 7249,
      "ç®Ĺæ³ķåĴĮ": 7250,
      "èĥ½ä¸įèĥ½": 7251,
      "æıĲåĩºäºĨ": 7252,
      "Ex": 7253,
      "ä¼Ĳ": 7254,
      "å¾ĹåĪĨ": 7255,
      "ç´§å¯Ĩ": 7256,
      "Alex": 7257,
      "è¿ĻäºĽæĸ¹æ³ķ": 7258,
      "ä¸ĸçķĮçļĦ": 7259,
      "Âł": 7260,
      "æĺ¯ä¸ºäºĨ": 7261,
      "éĩįè¦ģä½ľçĶ¨": 7262,
      "çĭ¼": 7263,
      "èĥİ": 7264,
      "éĩıåŃĲåĬĽåŃ¦": 7265,
      "199": 7266,
      "Ġé¦ĸåħĪ": 7267,
      "æľºåĻ¨åŃ¦ä¹łæĬĢæľ¯": 7268,
      "å¾ħéģĩ": 7269,
      "çķªèĮĦéħ±": 7270,
      "æĺ¯åħ³äºİ": 7271,
      "å¾Īå¿«": 7272,
      "åģľæŃ¢": 7273,
      "èĥ¶": 7274,
      "resent": 7275,
      "ĨĴ": 7276,
      "çļĦé¦ĸ": 7277,
      "åĴĮæıĲé«ĺ": 7278,
      "ï¼ļ[": 7279,
      "ç»ĦæĪĲçļĦ": 7280,
      "è¿Ł": 7281,
      "åıĹä¼¤": 7282,
      "èģĶåĲĪ": 7283,
      "åĲ¯åıĳ": 7284,
      "ix": 7285,
      "åĴĮé¢Ħæµĭ": 7286,
      "å°Ĩåľ¨": 7287,
      "riend": 7288,
      "æĺĨ": 7289,
      "éĴ®": 7290,
      "é½¿": 7291,
      "hip": 7292,
      "å¯¹æ¯Ķ": 7293,
      "ats": 7294,
      "æĶ¹åıĺäºĨ": 7295,
      "ĠéĢīæĭ©": 7296,
      "çļĦè¯Ĺ": 7297,
      "åįĵ": 7298,
      "æĪĳä»¬è¿ĺ": 7299,
      "æ·Ģ": 7300,
      "åĮħåĲ«äºĨ": 7301,
      "Ġalso": 7302,
      "ä¾£": 7303,
      "åĪ°ä½ł": 7304,
      "Ġthen": 7305,
      "æĪĲä¸ºä¸Ģä¸ª": 7306,
      "æĮ¯": 7307,
      "ä¼łæī¿": 7308,
      "ç§¯æŀģåıĤä¸İ": 7309,
      "åľ°éĿ¢": 7310,
      "ä½Ĩå®ĥä»¬": 7311,
      "lic": 7312,
      "æķĻç¨ĭ": 7313,
      "åĳ½åĲį": 7314,
      "Ġsolve": 7315,
      "ä¼ı": 7316,
      "éĢļå¸¸åľ¨": 7317,
      "çļĦæĥħæĦŁåĴĮ": 7318,
      "Ġunder": 7319,
      "è½´": 7320,
      "å¦Ĥæŀľæľī": 7321,
      "å¼ķäºº": 7322,
      "æ¶¯": 7323,
      "çº¿æĢ§": 7324,
      "è·¯å¾Ħ": 7325,
      "çļĦæ¯ıä¸ª": 7326,
      "ck": 7327,
      "å¸®ä½ł": 7328,
      "åľ¨ä¸įåĲĮ": 7329,
      "It": 7330,
      "å¸ĮèħĬ": 7331,
      "è¿Ļä¹Ī": 7332,
      "ä»£åħ¥": 7333,
      "é¢Ħè®¡": 7334,
      "æİ¨æĸŃ": 7335,
      "ĠCon": 7336,
      "çļĦç©ºéĹ´": 7337,
      "è¿Ń": 7338,
      "ä¸ĢäºĽäºº": 7339,
      "å¤ļæ¬¡": 7340,
      "ences": 7341,
      "ç¨³å®ļæĢ§": 7342,
      "Ġsquare": 7343,
      "ages": 7344,
      "è½»æĿ¾åľ°": 7345,
      "çļĦä¸į": 7346,
      "è¿Ļä»½": 7347,
      "ypothesis": 7348,
      "Ġname": 7349,
      "äººåĴĮ": 7350,
      "Ġéģ¿åħį": 7351,
      "å¸®æĤ¨": 7352,
      "æĥħå¢ĥ": 7353,
      "è¿Ļä¸ªæķħäºĭ": 7354,
      "ä¸Ģåħ±": 7355,
      "æĪĳçŁ¥éģĵ": 7356,
      "åı¯ä»¥å¾ĹåĪ°": 7357,
      "åħĭçļĦ": 7358,
      "ĠéĤ£": 7359,
      "å¦ĤåĲĮ": 7360,
      "ä»ĸåĢĳ": 7361,
      "å¥ĳ": 7362,
      "çļĦæ²»çĸĹæĸ¹æ¡Ī": 7363,
      "duc": 7364,
      "ÃĹ": 7365,
      "æ¿ĢçĥĪ": 7366,
      "å¥½çľĭ": 7367,
      "æĤ¨å¯¹": 7368,
      "Ġreg": 7369,
      "âĢ¦âĢ¦": 7370,
      "çļĦåĨ³çŃĸ": 7371,
      "åĴĮæĶ¹è¿Ľ": 7372,
      "67": 7373,
      "æ°Ķè±¡": 7374,
      "éķ¿åŁİ": 7375,
      "äºīè®®": 7376,
      "Ġsecond": 7377,
      "ç»ĻæĪĳä»¬": 7378,
      "ä¼łè¯´": 7379,
      "éĹ»åĲį": 7380,
      "æĴŃæĶ¾": 7381,
      "éĽĨä¸Ńæ³¨æĦıåĬĽ": 7382,
      "åľ¨æĪĳ": 7383,
      "æĪĳéĿŀå¸¸": 7384,
      "å¤ļå¹´": 7385,
      "lect": 7386,
      "å¸½": 7387,
      "æµ·é²ľ": 7388,
      "çļĦçĥ¤": 7389,
      "å°Ĭæķ¬çļĦ": 7390,
      "{\\": 7391,
      "è¿Ľè¡Įè°ĥæķ´": 7392,
      "æĺ¯ä¸Ģä¸ªéĿŀå¸¸": 7393,
      "å¤§æ°Ķå±Ĥ": 7394,
      "åĬŀåħ¬å®¤": 7395,
      "ĠæĬĬ": 7396,
      "çĶµåŃĲåķĨåĬ¡": 7397,
      "å°ıæĺİåĴĮ": 7398,
      "èŀįåħ¥": 7399,
      "400": 7400,
      "AB": 7401,
      "æĸ¹å½¢": 7402,
      "æĤ¨æĥ³è¦ģ": 7403,
      "åĪĨåĪ«æĺ¯": 7404,
      "Ġhours": 7405,
      "é£İåĲ¹": 7406,
      "è¡Įä¸ļä¸Ń": 7407,
      "åı¯ä»¥åĪ©çĶ¨": 7408,
      "ç¥ŀå¥ĩ": 7409,
      "ç¤¾äº¤åªĴä½ĵä¸Ĭ": 7410,
      "ä¸´åºĬ": 7411,
      "ĠåŃ¦ä¹ł": 7412,
      "ä¸ºä¸Ģä¸ª": 7413,
      "ç©ºä¸Ń": 7414,
      "ten": 7415,
      "å°ĳå¹´": 7416,
      "éĵĥ": 7417,
      "å·¥åħ·åĴĮ": 7418,
      "éĻ¤æ³ķ": 7419,
      "ç»ıæµİåıĳå±ķ": 7420,
      "ĠæĬĢæľ¯": 7421,
      "any": 7422,
      "æĽ´åĬłé«ĺæķĪ": 7423,
      "ä»¥åıĬå¦Ĥä½ķ": 7424,
      "Ġag": 7425,
      "æµĨ": 7426,
      "æ¼Ķå¥ı": 7427,
      "åĽŀçŃĶä»¥ä¸ĭéĹ®é¢ĺ": 7428,
      "åıĳçĶµ": 7429,
      "å¹¶ä¸İ": 7430,
      "æĹ±": 7431,
      "stand": 7432,
      "Ġ×": 7433,
      "2019": 7434,
      "è¯»ä¹¦": 7435,
      "åĩºèī²çļĦ": 7436,
      "æķħäºĭæĥħèĬĤ": 7437,
      "irm": 7438,
      "æľīæĦıä¹ī": 7439,
      "à¤¾": 7440,
      "ä»ĺåĩº": 7441,
      "æĭĴç»Ŀ": 7442,
      "åĩıå°ĳä½¿çĶ¨": 7443,
      "åĨĻä¸Ģç¯ĩåħ³äºİçİ¯ä¿ĿçļĦæĸĩç«ł": 7444,
      "ä½łæľĢè¿ĳ": 7445,
      "åŃĺåľ¨çļĦ": 7446,
      "ails": 7447,
      "ä½ĵçļĦ": 7448,
      "å¹³éĿĻ": 7449,
      "çĽ¸å½ĵ": 7450,
      "ç¿Ķ": 7451,
      "è¶ħçº§": 7452,
      "éĻĮçĶŁ": 7453,
      "Ð»": 7454,
      "æĪĳä»¬è¦ģ": 7455,
      "äº¤å¾Ģ": 7456,
      "è¡Įä¸ļçļĦ": 7457,
      "å¦¹": 7458,
      "èįĴ": 7459,
      "åĴĮèĶ¬èıľ": 7460,
      "å¸Ĥä¸Ńå¿ĥ": 7461,
      "å®¢æ°Ķ": 7462,
      "éĹ®é¢ĺæĪĸ": 7463,
      "åİŁæĿ¥": 7464,
      "åĬłå¼ºå¯¹": 7465,
      "åĢºåĪ¸": 7466,
      "åĴĮå°Ĭéĩį": 7467,
      "åı¯ä»¥å®ŀçİ°": 7468,
      "äºļé©¬": 7469,
      "çļĦåĳ³éģĵ": 7470,
      "æĺ¯ä¸Ģç§įéĿŀå¸¸": 7471,
      "æ²³æµģ": 7472,
      "æĤ¨èĥ½": 7473,
      "éĥ½éľĢè¦ģ": 7474,
      "Ġbrown": 7475,
      "åĳ½è¿Ĳ": 7476,
      "ä½łèĥ½åĲ¦": 7477,
      "åģļä¸ĢäºĽ": 7478,
      "é¦Ļæ°Ķ": 7479,
      "Ġstate": 7480,
      "çļĦçħ": 7481,
      "çļĦæĬ¥": 7482,
      "çĲĨè´¢": 7483,
      "åħĥéĴ±": 7484,
      "Ġmon": 7485,
      "èĥ½å¤ŁæĽ´å¥½åľ°": 7486,
      "æĴ°åĨĻ": 7487,
      "APP": 7488,
      "è¿Ļç§įæĸ¹æ³ķ": 7489,
      "è®¡åĪĴåĴĮ": 7490,
      "åı·çłģ": 7491,
      "èĤĿ": 7492,
      "add": 7493,
      "æ¸¸æĪıä¸Ń": 7494,
      "çªģçł´": 7495,
      "Ġwhile": 7496,
      "è®²è§£": 7497,
      "è¿ŀç»Ń": 7498,
      "æ¬ºè¯Ī": 7499,
      "æ¶¨": 7500,
      "èĭ±å¯¸": 7501,
      "æĸ¤": 7502,
      "æĪĳæĿ¥": 7503,
      "äººä»¬çļĦçĶŁæ´»": 7504,
      "ä¸ĸçķĮåĲĦåľ°": 7505,
      "è¯ĨåĪ«åĴĮ": 7506,
      "è¾ŀ": 7507,
      "Ġthrough": 7508,
      "åıĳçĶŁäºĨ": 7509,
      "åľ°äº§": 7510,
      "æįī": 7511,
      "æĽ´åĬłæ³¨éĩį": 7512,
      "ruct": 7513,
      "ital": 7514,
      "ric": 7515,
      "æķĪçĽĬ": 7516,
      "å°ıæĺİæīĭ": 7517,
      "åħ´è¶£åĴĮ": 7518,
      "Sar": 7519,
      "è¯Ńæ°Ķ": 7520,
      "æł¹æį®æĤ¨çļĦ": 7521,
      "èľĤèľľ": 7522,
      "gin": 7523,
      "å¾¡": 7524,
      "è§Ĥå¿µ": 7525,
      "å¤´èĦĳ": 7526,
      "çĥ¤çĽĺ": 7527,
      "è¯·ä¸ºæĪĳ": 7528,
      "æĿĲæĸĻåĴĮ": 7529,
      "æ¨Ļ": 7530,
      "æŁĶåĴĮ": 7531,
      "ood": 7532,
      "Ġä¸İ": 7533,
      "ä¸Ńåįİ": 7534,
      "å¼ºçļĦ": 7535,
      "ç§ĳæĬĢçļĦåıĳå±ķ": 7536,
      "ident": 7537,
      "ä½łåı¯ä»¥ä½¿çĶ¨": 7538,
      "çº¢æ¥¼": 7539,
      "å¯ĨåĪĩ": 7540,
      "ä»¥ä¸ĭæĺ¯ä¸ĢäºĽå»ºè®®": 7541,
      "åĨ°ç®±": 7542,
      "ç§įæĹıæŃ§è§Ĩ": 7543,
      "äºļé©¬éĢĬ": 7544,
      "ows": 7545,
      "ĠWhat": 7546,
      "èĪĴéĢĤçļĦ": 7547,
      "åĨłåĨĽ": 7548,
      "ta": 7549,
      "ä»İèĢĮå®ŀçİ°": 7550,
      "çİ¯å¢ĥåĴĮ": 7551,
      "\\(": 7552,
      "ĠWorld": 7553,
      "æĤłä¹ħ": 7554,
      "è¶ħè¶Ĭ": 7555,
      "å²ģæľĪ": 7556,
      "æĴĴä¸Ĭ": 7557,
      "mat": 7558,
      "ä¸ªæľĭåıĭ": 7559,
      "æĻļé¤Ĳ": 7560,
      "æĺ¥èĬĤ": 7561,
      "çļĦåĴĮ": 7562,
      "åľ¨éĩĳèŀį": 7563,
      "Ġrev": 7564,
      "Ġremain": 7565,
      "è¿ĽåĪ¶": 7566,
      "ç»ĨèıĮ": 7567,
      "è¾Ľ": 7568,
      "Ġ17": 7569,
      "æľįåĬ¡åĳĺ": 7570,
      "ç§¯ç´¯": 7571,
      "åģļåĩºè´¡çĮ®": 7572,
      "æĪĳä»¬åı¯ä»¥å°Ĩ": 7573,
      "çİ°åľ¨è¯·ä½ł": 7574,
      "è¸ı": 7575,
      "äº§çĶŁå½±åĵį": 7576,
      "åįĹæŀģ": 7577,
      "åıªéľĢè¦ģ": 7578,
      "æīĵç®Ĺ": 7579,
      "è¿Ľè¡ĮæİĴåºı": 7580,
      "éĿŀå¸¸å¹¿æ³Ľ": 7581,
      "ational": 7582,
      "æ©ĺ": 7583,
      "Ġperson": 7584,
      "æĸ¹å¼ıåĴĮ": 7585,
      "åªļ": 7586,
      "åį³å°Ĩ": 7587,
      "ç¾İæĻ¯": 7588,
      "ability": 7589,
      "ffect": 7590,
      "ä¸ªæľĪ": 7591,
      "åĲĳä¸Ĭ": 7592,
      "ä¸įåĪ°": 7593,
      "æĹ¶éĹ´è¡¨": 7594,
      "not": 7595,
      "å¤ĩåıĹ": 7596,
      "Ġprice": 7597,
      "çļĦè§£åĨ³æĸ¹æ¡Ī": 7598,
      "ä¸įå°ĳ": 7599,
      "éľĢè¦ģå¸®åĬ©": 7600,
      "éģ¸æĵ": 7601,
      "Ġcar": 7602,
      "æĮĩæķ°": 7603,
      "ä½Ĩæĺ¯æĪĳ": 7604,
      "è¿ĺæľīä¸ĢäºĽ": 7605,
      "éģ¸æĵĩ": 7606,
      "æĺŁæĺŁ": 7607,
      "è®¾è®¡å¸Ī": 7608,
      "æĪĸä¸į": 7609,
      "éħµ": 7610,
      "ç§ĳåŃ¦å®¶ä»¬": 7611,
      "çļĦåĲĹ": 7612,
      "æľīäºĨ": 7613,
      "å¤ªå¤ļ": 7614,
      "me": 7615,
      "ä¸ĬäºĨ": 7616,
      "å¸¦çĿĢ": 7617,
      "Ġgrou": 7618,
      "æııè¿°ä¸Ģä¸ª": 7619,
      "ems": 7620,
      "éģĵå¾·åĴĮ": 7621,
      "éŀĭåŃĲ": 7622,
      "ä¸»åĬ¨": 7623,
      "é¢ĦçĥŃ": 7624,
      "ä¸ºçĶ¨æĪ·": 7625,
      "åĬªåĬĽåĴĮ": 7626,
      "æģĲæĢĸ": 7627,
      "çļĦåħ¬åı¸": 7628,
      "ä¸įéĶĻçļĦéĢīæĭ©": 7629,
      "æ¯ģ": 7630,
      "åĮĸå¦Ĩ": 7631,
      "å¥ĩæķ°": 7632,
      "æĸ¹ç¨ĭå¼ı": 7633,
      "äº§çĶŁçļĦ": 7634,
      "çĶŁçī©å¤ļæł·æĢ§": 7635,
      "è®©æĤ¨": 7636,
      "æ£ī": 7637,
      "éĢŁåº¦åĴĮ": 7638,
      "ĠTr": 7639,
      "ç§ĳæĬĢåħ¬åı¸": 7640,
      "ç§ĳå¹»å°ıè¯´": 7641,
      "ä¸»é¢ĺæĺ¯": 7642,
      "Ġused": 7643,
      "ä¾ĽåºĶéĵ¾": 7644,
      "æĺĤ": 7645,
      "çĶŁçī©åŃ¦": 7646,
      "å°¼åħĭ": 7647,
      "çļĦåħĥç´ł": 7648,
      "äººæīį": 7649,
      "åĪĨåī²": 7650,
      "çħ§çīĩ": 7651,
      "å±ķçİ°äºĨ": 7652,
      "çļĦç¼ĸç¨ĭè¯Ńè¨Ģ": 7653,
      "Ġsystem": 7654,
      "éŁ³é¢ĳ": 7655,
      "çĽ¸åħ³ä¿¡æģ¯": 7656,
      "å°½åı¯èĥ½åľ°": 7657,
      "ä»¥æ»¡è¶³": 7658,
      "è£ħå¤ĩ": 7659,
      "ffic": 7660,
      "ä¿¡çĶ¨åį¡": 7661,
      "If": 7662,
      "å¯¹ä½ł": 7663,
      "åĺ´": 7664,
      "çļĦç³»": 7665,
      "GPT": 7666,
      "çº¢æ¥¼æ¢¦": 7667,
      "åĴĮæĶ¾æĿ¾": 7668,
      "å¹¶éĢļè¿ĩ": 7669,
      "çļĦçĹĩ": 7670,
      "æĮīéĴ®": 7671,
      "}}": 7672,
      "æĸĩèīº": 7673,
      "èĢĮåľ¨": 7674,
      "åģļä»Ģä¹Ī": 7675,
      "ï¼ģâĢĿ": 7676,
      "åĴĮå¸Ĥåľº": 7677,
      "ature": 7678,
      "å±ķè§Ī": 7679,
      "ç©ĨæľĹ": 7680,
      "æľįåĬ¡åĻ¨": 7681,
      "çļĦåı¯": 7682,
      "è¿ĺè¦ģ": 7683,
      "èĩªçĦ¶çķĮ": 7684,
      "è¯¦ç»Ĩä¿¡æģ¯": 7685,
      "ç¢³æ°´åĮĸåĲĪçī©": 7686,
      "çļĦæ½ľåĬĽ": 7687,
      "åĩıç¼ĵ": 7688,
      "ç±³é¥Ń": 7689,
      "é¦Ļèįī": 7690,
      "åĨĽäºĭ": 7691,
      "åŃĻ": 7692,
      "è£Ķ": 7693,
      "ided": 7694,
      "äººå·¥æĻºèĥ½ç³»ç»Ł": 7695,
      "å°ĳæķ°": 7696,
      "é¥®åĵģ": 7697,
      "çĭĹçļĦ": 7698,
      "çĶ·åŃĲ": 7699,
      "çļĦç¤¼": 7700,
      "åı¯ä»¥è®©ä½ł": 7701,
      "çĶµè§Ĩåī§": 7702,
      "åĴĮä¿¡æģ¯": 7703,
      "ç©ĨæľĹçİĽ": 7704,
      ");": 7705,
      "å¸ĥå±Ģ": 7706,
      "æıŃç¤º": 7707,
      "pe": 7708,
      "åľ¨è¿Ľè¡Į": 7709,
      "æķ´éĻ¤": 7710,
      "ä»¥ä¸ĭæĺ¯ä¸ĢäºĽåı¯èĥ½": 7711,
      "çļĦæ¦Ĥçİĩ": 7712,
      "ĠYou": 7713,
      "Ġanalyz": 7714,
      "çļĦçº¿": 7715,
      "apple": 7716,
      "æµģè¡ĮçļĦ": 7717,
      "æĢ§åĪ«æŃ§è§Ĩ": 7718,
      "åĩºçİ°åľ¨": 7719,
      "ä½ıå®¿": 7720,
      "(-": 7721,
      "],": 7722,
      "å¸®åĬ©æĪĳä»¬": 7723,
      "æ©ŁåĻ¨": 7724,
      "RO": 7725,
      "æĺ¯åŁºäºİ": 7726,
      "å°ıå¼ł": 7727,
      "ĠRe": 7728,
      "çļĦæŁĲ": 7729,
      "çļĦå¸Ĥåľº": 7730,
      "çļĦåŃĺåľ¨": 7731,
      "éĩĮæľī": 7732,
      "ä¸¤äºº": 7733,
      "ç²®": 7734,
      "åıĻ": 7735,
      "è¯Ńå¢ĥ": 7736,
      "çļĦæĥħèĬĤ": 7737,
      "ä»¥ä¸Ĭæĺ¯ä¸ĢäºĽ": 7738,
      "ä½łæĥ³è¦ģ": 7739,
      "çĽ®æłĩåıĹä¼Ĺ": 7740,
      "èį¯åĵģ": 7741,
      "åĴĮæĪĳ": 7742,
      "äº¤æį¢": 7743,
      "èĽĩ": 7744,
      "34": 7745,
      "æ¸´": 7746,
      "åĴĮçłĶç©¶": 7747,
      "åĩºä¸Ģä¸ª": 7748,
      "ä»İäºĭ": 7749,
      "step": 7750,
      "é»ŀ": 7751,
      "è¿ĺæľīå¾Īå¤ļ": 7752,
      "åħ¶ä¸ŃæľĢ": 7753,
      "èħ¾": 7754,
      "åįļå®¢": 7755,
      "Ġassistant": 7756,
      "çļĦæĻ®åıĬ": 7757,
      "ĸæģ¯åľ°": 7758,
      "å°ıçĮ«": 7759,
      "Ġcontext": 7760,
      "æĨ": 7761,
      "è¤": 7762,
      "è¾¨": 7763,
      "æľ¬åľ°": 7764,
      "åı¯çĶ¨äºİ": 7765,
      "è¿Ļä½į": 7766,
      "ank": 7767,
      "ä¹Ĳè§Ĥ": 7768,
      "AIè¯Ńè¨Ģæ¨¡åŀĭ": 7769,
      "ç²ĺ": 7770,
      "¬éĹ´": 7771,
      "ä¹ĭä¸Ń": 7772,
      "ä¼ĺéĽħ": 7773,
      "å¾®ç¬ĳ": 7774,
      "åħ¼": 7775,
      "å¢ŀæ·»": 7776,
      "éĩĩçĶ¨äºĨ": 7777,
      "å¸ĮæľĽè¿ĻäºĽå»ºè®®": 7778,
      "Ġdirect": 7779,
      "æīĭå·¥": 7780,
      "çļĦç±»åŀĭ": 7781,
      "ĠEnglish": 7782,
      "åıįè½¬": 7783,
      "ä¸ĩçī©": 7784,
      "æŁ±": 7785,
      "éĴ¥": 7786,
      "èĩªçĦ¶èµĦæºĲ": 7787,
      "ç½Ĺé©¬": 7788,
      "æĿ¥è¡¨è¾¾": 7789,
      "çİ°æľī": 7790,
      "éģĭ": 7791,
      "éĨĩ": 7792,
      "åħ¨éĥ¨": 7793,
      "ä¿®æŃ£": 7794,
      "ĠFor": 7795,
      "æľĢéĩįè¦ģçļĦæĺ¯": 7796,
      "ighlight": 7797,
      "ç©ĨæľĹçİĽå³°": 7798,
      "å½»": 7799,
      "ĠCom": 7800,
      "Ġå¤§": 7801,
      "Ġåĩ½æķ°": 7802,
      "åĪĳ": 7803,
      "è¢«åĳĬ": 7804,
      "çĳŁ": 7805,
      "æľ¨æĺŁ": 7806,
      "çļĦæĽ´": 7807,
      "æ²¸": 7808,
      "Ġ$,": 7809,
      "ĠåĬłå¼º": 7810,
      "ç»µ": 7811,
      "rest": 7812,
      "åĬłåħ¥ä¸ĢäºĽ": 7813,
      "çļĦæłĳ": 7814,
      "Ġsupp": 7815,
      "ĠâĨĴ": 7816,
      "çļĦç²¾ç¥ŀ": 7817,
      "ä¿Ħ": 7818,
      "æ³ª": 7819,
      "èĳ¡èĲĦéħĴ": 7820,
      "Step": 7821,
      "çļĦè·Ŀç¦»": 7822,
      "åģ¿": 7823,
      "Ġsame": 7824,
      "æĸĩæľ¬åĪĨç±»": 7825,
      "éģįåİĨ": 7826,
      "Ġtransl": 7827,
      "çļĦåĴĸåķ¡": 7828,
      "ç§ĺå¯Ĩ": 7829,
      "æ¶Į": 7830,
      "æĽ´å¥½åľ°çĲĨè§£åĴĮ": 7831,
      "çļĦçĹĩçĬ¶": 7832,
      "åĴĮå½±åĵį": 7833,
      "åŃ¦ä¹łç¼ĸç¨ĭ": 7834,
      "æ°´çļĦ": 7835,
      "ç»´ä¿®": 7836,
      "åŃ©åŃĲçļĦ": 7837,
      "çļĦæ°Ķæģ¯": 7838,
      "çļĦæ°ĶåĢĻ": 7839,
      "æ·±åĪ»çļĦ": 7840,
      "ww": 7841,
      "ä½Ĩä»ĸ": 7842,
      "æķĪåºĶ": 7843,
      "æĿ¡æ¬¾": 7844,
      "Ġhere": 7845,
      "çļĦå¥½å¤Ħ": 7846,
      "ä¸¤ä¸ªæķ°åŃĹ": 7847,
      "åıĳçİ°äºĨ": 7848,
      "ç®Ģåįķæĺĵ": 7849,
      "co": 7850,
      "è¡¬": 7851,
      "éĩĳé»Ħèī²": 7852,
      "æĺŁç³»": 7853,
      "tract": 7854,
      "æĹłå°½": 7855,
      "å®¡æŁ¥": 7856,
      "çĽ¸åĲĮçļĦ": 7857,
      "ï¼ħ": 7858,
      "æĿ¥åĩıå°ĳ": 7859,
      "å¯ĴåĨ·": 7860,
      "ç¸": 7861,
      "è¢Ń": 7862,
      "ç®ĢåĮĸ": 7863,
      "Ġest": 7864,
      "olv": 7865,
      "æķ¸": 7866,
      "å·¥èµĦ": 7867,
      "ç¾½": 7868,
      "åģļä¸Ģä¸ª": 7869,
      "ç¢±": 7870,
      "é»ĳå®¢": 7871,
      "Ġmean": 7872,
      "äººä»¬åı¯ä»¥": 7873,
      "ä»İæĸĩç«łä¸ŃæıĲåıĸ": 7874,
      "ä¸ŃæĢ§": 7875,
      "æĻºèĥ½åĮĸçļĦ": 7876,
      "çĶµå½±çļĦ": 7877,
      "2000": 7878,
      "ä¸Ģéĥ¨åĪĨ": 7879,
      "anana": 7880,
      "çĶŁæĪĲä¸Ģä»½": 7881,
      "ä»¥ä¸ĭåĩłçĤ¹": 7882,
      "ï¼ļ'": 7883,
      "è°ĥçłĶ": 7884,
      "åĩĨç¡®çļĦ": 7885,
      "Ġå¤ļ": 7886,
      "Ġçĥ¤": 7887,
      "è¿Ļåľº": 7888,
      "æĥħæĦŁåĴĮ": 7889,
      "åĮĸåŃ¦åıįåºĶ": 7890,
      "æĸĩçĮ®": 7891,
      "ãĤĴ": 7892,
      "è¿ĽèĢĮ": 7893,
      "æıĲä¾ĽæĽ´å¤ļçļĦ": 7894,
      "å¸®åĬ©äººä»¬": 7895,
      "æĪ¿åľ°äº§": 7896,
      "éħ±æ²¹": 7897,
      "Ġ)": 7898,
      "è¿Ļå°±æĺ¯": 7899,
      "è®²ä¸Ģä¸ª": 7900,
      "Ø±": 7901,
      "Ġstand": 7902,
      "åĸĦèī¯": 7903,
      "çºłæŃ£": 7904,
      "vent": 7905,
      "éĥ½å¾Ī": 7906,
      "Ġarr": 7907,
      "é¢ĺæĿĲ": 7908,
      "æ±º": 7909,
      "Ġbre": 7910,
      "Pythonä»£çłģ": 7911,
      "æ»ĭ": 7912,
      "å°ıæĺİçļĦ": 7913,
      "å¿½è§Ĩ": 7914,
      "åĮĸçŁ³çĩĥæĸĻ": 7915,
      "å®¹åĻ¨": 7916,
      "åĸĦäºİ": 7917,
      "åĩºçļĦ": 7918,
      "æĤ¨è®¤ä¸º": 7919,
      "åĲĦåĽ½": 7920,
      "ä»½é¢Ŀ": 7921,
      "æ¶Īå¤±": 7922,
      "ÙĨ": 7923,
      "ĠæĪĳä»¬": 7924,
      "åĲĮä¸Ģ": 7925,
      "èĤ¿": 7926,
      "ç¼ĸçłģ": 7927,
      "ç¦»åŃĲ": 7928,
      "è¡¡éĩı": 7929,
      "çıłç©ĨæľĹçİĽå³°": 7930,
      "æ¨Ĥ": 7931,
      "åĲĳåīį": 7932,
      "èĲ¥åħ»ç´ł": 7933,
      "éĵ¾æİ¥": 7934,
      "éĢļè¿ĩåĪĨæŀĲ": 7935,
      "ä¸¤ä¸ªäºº": 7936,
      "åħħçĶµ": 7937,
      "æĺ¾å¾Ĺ": 7938,
      "éĢĤå®ľ": 7939,
      "åĪĩç¢İ": 7940,
      "è¯ŃéŁ³åĬ©æīĭ": 7941,
      "mer": 7942,
      "åºĶå½ĵ": 7943,
      "éĢļéģİ": 7944,
      "è§Ĥæµĭ": 7945,
      "æĵį": 7946,
      "å·²æĪĲä¸º": 7947,
      "ç³»ç»Łä¸Ń": 7948,
      "Ġyears": 7949,
      "è¿½æº¯åĪ°": 7950,
      "aint": 7951,
      "ä¸įå¾Ĺ": 7952,
      "éĤ¦": 7953,
      "æĹ¥ç¨ĭ": 7954,
      "è¯¥åħ¬åı¸": 7955,
      "æĶĢ": 7956,
      "å·¥ä½ľçļĦ": 7957,
      "\":": 7958,
      "ä¸ºä¸»é¢ĺ": 7959,
      "å®ļçĲĨ": 7960,
      "çªĥ": 7961,
      "ä¸ĭéĽ¨": 7962,
      "import": 7963,
      "æĽ´å¤ļçļĦäºº": 7964,
      "æİĪæĿĥ": 7965,
      "åĬłæ³ķ": 7966,
      "åĨħç½®": 7967,
      "çĲĥéĺŁ": 7968,
      "Ġ36": 7969,
      "åĲ¬éŁ³ä¹Ĳ": 7970,
      "ç¬¬ä¸Ģæ¬¡": 7971,
      "æ¦Ĥçİĩ": 7972,
      "çº½çº¦å¸Ĥ": 7973,
      "åıįå°Ħ": 7974,
      "çĽ´å¾Ħ": 7975,
      "èµ°äºĨ": 7976,
      "ä»¥æŃ¤": 7977,
      "Ġlong": 7978,
      "Ġcommon": 7979,
      "è¦ģä¿ĿæĮģ": 7980,
      "å®ĥä¼ļ": 7981,
      "æıĲä¾Ľå¸®åĬ©": 7982,
      "ç¾İå¦Ļ": 7983,
      "ä»İèĢĮåĩıå°ĳ": 7984,
      "èģĮä¸ļåıĳå±ķ": 7985,
      "ä»ĸæĥ³": 7986,
      "ä¿¡å¿ĥ": 7987,
      "éĢļè¿ĩä½¿çĶ¨": 7988,
      "æĢ»åħ±": 7989,
      "eters": 7990,
      "æķ£æĸĩ": 7991,
      "æĢİä¹Īåģļ": 7992,
      "ç¿»è¯ĳæĪĲèĭ±æĸĩ": 7993,
      "çļĦæłĩåĩĨ": 7994,
      "ä¼į": 7995,
      "ä»İèĢĮæĽ´å¥½åľ°": 7996,
      "èĨ³": 7997,
      "åľ¨å¤ĦçĲĨ": 7998,
      "ç»Ļäºº": 7999,
      "ä»¥ä¸ĭæĺ¯æĪĳ": 8000,
      "é¢ĳç¹ģ": 8001,
      "æľīä»·åĢ¼": 8002,
      "è¿ĽåĮĸ": 8003,
      "Ġevery": 8004,
      "çº¢æŁ¿": 8005,
      "ĠAl": 8006,
      "åĪĩæĪĲå°ıåĿĹ": 8007,
      "Lily": 8008,
      "ST": 8009,
      "å¥½å¥ĩ": 8010,
      "éŁ¿": 8011,
      "è¥¿çº¢æŁ¿": 8012,
      "ç½ĳç»ľå®īåħ¨": 8013,
      "Ġarea": 8014,
      "Ġfox": 8015,
      "89": 8016,
      "Let": 8017,
      "èĬ±æľµ": 8018,
      "ä½łåı¯ä»¥å°Ŀè¯ķ": 8019,
      "é¡¹çĽ®çļĦ": 8020,
      "åĳĺå·¥çļĦ": 8021,
      "120": 8022,
      "å¹¶å¯¹": 8023,
      "left": 8024,
      "æ±Ĥè§£": 8025,
      "æ·±æ·±": 8026,
      "åı¯èĥ½ä¼ļå½±åĵį": 8027,
      "éħ¸å¥¶": 8028,
      "çĦ¦èĻĳåĴĮ": 8029,
      "æııåĨĻ": 8030,
      "ash": 8031,
      "æ¼«æŃ¥": 8032,
      "åĽ¾ä¹¦é¦Ĩ": 8033,
      "å¸®å¿Ļ": 8034,
      "çĮ´": 8035,
      "\\).": 8036,
      "å°¼äºļ": 8037,
      "é¹¿": 8038,
      "æĪ°": 8039,
      "è¿ģ": 8040,
      "åı¯ä»¥å¯¹": 8041,
      "è¡Ģæ¶²": 8042,
      "çļĦç¤¾äº¤åªĴä½ĵ": 8043,
      "è¯¥åĩ½æķ°": 8044,
      "æııè¿°ä¸Ģä¸ĭ": 8045,
      "åĲ¯ç¤º": 8046,
      "åħįçĸ«åĬĽ": 8047,
      "JavaScript": 8048,
      "çļĦé£Łåĵģ": 8049,
      "åı¯ä»¥å¢ŀåĬł": 8050,
      "éĤĦ": 8051,
      "ames": 8052,
      "Ġonly": 8053,
      "å¹¼": 8054,
      "çļĦæĤ": 8055,
      "ç®Ń": 8056,
      "éĩįè¦ģçļĦæĺ¯": 8057,
      "å¼ķèµ·çļĦ": 8058,
      "éĽ¶åĶ®": 8059,
      "éľĢè¦ģçļĦ": 8060,
      "Ġcode": 8061,
      "æĹħéĢĶ": 8062,
      "2020": 8063,
      "æİ¢æµĭ": 8064,
      "uch": 8065,
      "ï¼ļï¼Ī": 8066,
      "ä»¥ä¸ĭæĺ¯æĪĳä¸ºæĤ¨": 8067,
      "ĠWhile": 8068,
      "å°¤åħ¶æĺ¯åľ¨": 8069,
      "Ġï¼Į": 8070,
      "çļĦå®īåħ¨æĢ§": 8071,
      "é«ĺè¡Ģåİĭ": 8072,
      "è¿Ļä¸ªåĩ½æķ°": 8073,
      "æĽ´å¤ļåħ³äºİ": 8074,
      "è®©æĪĳä»¬ä¸Ģèµ·": 8075,
      "ÃŃ": 8076,
      "Ġäººå·¥æĻºèĥ½": 8077,
      "åįī": 8078,
      "ä¸Ńå¤®": 8079,
      "èī°": 8080,
      "Verse": 8081,
      "æĪĴ": 8082,
      "å¤ķ": 8083,
      "Ġ80": 8084,
      "çĵ¦": 8085,
      "æľīå¤ļ": 8086,
      "èĢĮæĪĲ": 8087,
      "åľºåľ°": 8088,
      "ç¥ĸ": 8089,
      "ãģĦ": 8090,
      "çĪ±å¥½èĢħ": 8091,
      "çĩķéº¦": 8092,
      "æµĩ": 8093,
      "æĺİåªļ": 8094,
      "æĽ´æľīæķĪåľ°": 8095,
      "å¹¶è¾ĵåĩº": 8096,
      "ä¸ĸçķĮä¸Ń": 8097,
      "èĢģå¹´äºº": 8098,
      "åı¶åŃĲ": 8099,
      "æ²Ļåıĳ": 8100,
      "æ¶µçĽĸäºĨ": 8101,
      "ä¸ªæ©ĻåŃĲ": 8102,
      "åı¯ä»¥èĩªåĬ¨": 8103,
      "è¿ĺä¼ļ": 8104,
      "ä½įæķ°": 8105,
      "è·³è·ĥ": 8106,
      "èªīä¸º": 8107,
      "æĹłäººæľº": 8108,
      "åı¦ä¸Ģæĸ¹éĿ¢": 8109,
      "%ï¼Į": 8110,
      "Ġå¯¹": 8111,
      "çļĦçķ": 8112,
      "æ¢¨": 8113,
      "ä¸Ģä½įå¹´è½»çļĦ": 8114,
      "çĲ³": 8115,
      "æ°´èµĦæºĲ": 8116,
      "å¼ķåħ¥": 8117,
      "èĭ±å°º": 8118,
      "æĮ«æĬĺ": 8119,
      "æ¾³": 8120,
      "ird": 8121,
      "åı¦ä¸Ģç§į": 8122,
      "éĩĳèŀįæľºæŀĦ": 8123,
      "èĥľåľ°": 8124,
      "æĪĳå¾Īä¹ĲæĦı": 8125,
      "aw": 8126,
      "Ñĥ": 8127,
      "çļĦæľªæĿ¥": 8128,
      "Ġplease": 8129,
      "ãĢĭï¼ļ": 8130,
      "æĭĸå»¶": 8131,
      "ä»¥ä¿ĿæĮģ": 8132,
      "æ³½": 8133,
      "æłĳæľ¨": 8134,
      "55": 8135,
      "æĤŁ": 8136,
      "æĸ¹æ³ķåĴĮ": 8137,
      "åį¢": 8138,
      "æİĴåĲį": 8139,
      "echn": 8140,
      "èĵĦ": 8141,
      "AR": 8142,
      "çļĦè§Ĵèī²": 8143,
      "éľį": 8144,
      "çİ¯èĬĤ": 8145,
      "ä½łèĥ½å¸®æĪĳ": 8146,
      "ç»Ŀå¯¹": 8147,
      "alth": 8148,
      "æµģåĬ¨": 8149,
      "æĤ¨åı¯ä»¥èĢĥèĻĳ": 8150,
      "åı¤èĢģçļĦ": 8151,
      "å¤º": 8152,
      "çļĦæłĩé¢ĺ": 8153,
      "Ġbecause": 8154,
      "èĨ³é£Ł": 8155,
      "Ã³": 8156,
      "æ¬¡æķ°": 8157,
      "çĽ¸å¯¹è®º": 8158,
      "appy": 8159,
      "æľīä¸įåĲĮçļĦ": 8160,
      "è´¯": 8161,
      "ä¹ĭæĥħ": 8162,
      "Ġthink": 8163,
      "rib": 8164,
      "Ġpoints": 8165,
      "åı¯ä»¥æĽ´å¥½åľ°": 8166,
      "åĨĻä¸Ģç¯ĩä»ĭç»į": 8167,
      "æķ°åŃ¦éĹ®é¢ĺ": 8168,
      "è¿Ļå°ĨæľīåĬ©äºİ": 8169,
      "sh": 8170,
      "Ġyes": 8171,
      "å¦ĤæŀľæĤ¨æľī": 8172,
      "ä»¥ç¡®å®ļ": 8173,
      "ä¸Ģå®ļä¼ļ": 8174,
      "åģ¥åº·éĹ®é¢ĺ": 8175,
      "æķıæį·": 8176,
      "æ²¡éĹ®é¢ĺ": 8177,
      "çľŁæĺ¯": 8178,
      "ç¡¬ä»¶": 8179,
      "Ġåħĥ": 8180,
      "çĶµåķĨ": 8181,
      "äº§åĵģåĴĮæľįåĬ¡": 8182,
      "åĲ¸å¼ķåĬĽ": 8183,
      "ĠåĩĨå¤ĩ": 8184,
      "ä¸ĭåİ»": 8185,
      "ç§įåŃĲ": 8186,
      "çļĦæµª": 8187,
      "ä¾ĭåŃĲä¸Ń": 8188,
      "åĩıè½»åİĭåĬĽ": 8189,
      "æ¯ıäºº": 8190,
      "çİ¯ä¿ĿéĹ®é¢ĺ": 8191,
      "Ġspe": 8192,
      "ä¸įä»ħä»ħæĺ¯": 8193,
      "äººä»¬åľ¨": 8194,
      "è¥¿çĵľ": 8195,
      "é¦Ļåĳ³": 8196,
      "ier": 8197,
      "ãģ¯": 8198,
      "æĬ½è±¡": 8199,
      "Ġlazy": 8200,
      "æ·±å¤Ħ": 8201,
      "ä¸»æĦı": 8202,
      "åĿĲåľ¨": 8203,
      "çļĦçĭ¬çī¹": 8204,
      "åĸĤ": 8205,
      "èĥ½æºĲæ¶ĪèĢĹ": 8206,
      "éļĲèĹı": 8207,
      "è¯Ńæ³ķåĴĮ": 8208,
      "å¥½åĥı": 8209,
      "éĽ»": 8210,
      "ä»¥ä¸ĭæĺ¯ä¸Ģç¯ĩåħ³äºİ": 8211,
      "Ġsent": 8212,
      "ç²ĴåŃĲ": 8213,
      "æĪĳæĥ³äºĨè§£ä¸Ģä¸ĭ": 8214,
      "çĸ¼çĹĽ": 8215,
      "ÙĬ": 8216,
      "æĹĹ": 8217,
      "é«ĺæ¸©": 8218,
      "ç®Ĺæ³ķçļĦ": 8219,
      "éĩİé¤Ĳ": 8220,
      "çİīç±³": 8221,
      "è°ĥåĳ³æĸĻ": 8222,
      "ä½Ĩä¸įéĻĲäºİ": 8223,
      "Ġlove": 8224,
      "ç§ĭåŃ£": 8225,
      "åĨ°å·Ŀ": 8226,
      "ç¬ĳè¯Ŀ": 8227,
      "Ġgood": 8228,
      "çļĦå®ļä¹ī": 8229,
      "ç¾İæ´²": 8230,
      "çłĶç©¶è¡¨æĺİ": 8231,
      "æľĢè¿ĳçļĦ": 8232,
      "è´µçļĦ": 8233,
      "åľ¨åĵªéĩĮ": 8234,
      "çĸı": 8235,
      "æµ·æµª": 8236,
      "ä¸ŃçļĦä¸Ģä¸ª": 8237,
      "åĬŁèĥ½åĴĮ": 8238,
      "çļĦæĹ¶éĹ´åĴĮ": 8239,
      "å®£å¸ĥ": 8240,
      "è®©äººæĦŁåĪ°": 8241,
      "Thus": 8242,
      "å¡«åĨĻ": 8243,
      "çŁ©éĺµ": 8244,
      "ä¹Łæĺ¯ä¸Ģä¸ª": 8245,
      "åĪ©äºİ": 8246,
      "ä¸įæĸŃæıĲé«ĺ": 8247,
      "è«ĭ": 8248,
      "é»Ľ": 8249,
      "éļıçĿĢæĹ¶éĹ´": 8250,
      "éĽ¶é£Ł": 8251,
      "Re": 8252,
      "å½±éŁ¿": 8253,
      "èĥĢ": 8254,
      "çļĦæīĭæľº": 8255,
      "çļĦçĮ«": 8256,
      "å¤´åıĳ": 8257,
      "å¦ĤæŀľæĤ¨æľīä»»ä½ķ": 8258,
      "ä¹ĺåĿĲ": 8259,
      "èľľèľĤ": 8260,
      "åĿļå®ļ": 8261,
      "è®²è¿°äºĨä¸Ģä¸ª": 8262,
      "æĢ§éĹ®é¢ĺ": 8263,
      "æľĢåĪĿ": 8264,
      "å¸®åĬ©ä»ĸä»¬": 8265,
      "çļĦæµ·æ»©": 8266,
      "çļĦçħ§": 8267,
      "ç¨ĭåºıåĳĺ": 8268,
      "æ¹¿åº¦": 8269,
      "åĴĮé£İéĻ©": 8270,
      "NLP": 8271,
      "åı¯åı£": 8272,
      "ãģĹ": 8273,
      "åĴĮä¿ĿæĬ¤": 8274,
      "å¸Ń": 8275,
      "ä¹ŁåºĶè¯¥": 8276,
      "æ°Ľ": 8277,
      "äººèĦ¸": 8278,
      "å¹¶è§£éĩĬ": 8279,
      "èŀįåĮĸ": 8280,
      "Web": 8281,
      "Ġamount": 8282,
      "åĲĽ": 8283,
      "æĹ¶çļĦ": 8284,
      "éĥ½åºĶè¯¥": 8285,
      "è®©èĩªå·±": 8286,
      "åı£ç½©": 8287,
      "åħ·ä½ĵæĥħåĨµ": 8288,
      "çļĦä¸»è¦ģè§ĤçĤ¹": 8289,
      "è¿Ļé¦ĸæŃĮ": 8290,
      "88": 8291,
      "éĩıçļĦ": 8292,
      "æĺ¯åĲ¦ä¼ļ": 8293,
      "æīĢæľīäºº": 8294,
      "Ġens": 8295,
      "ĠUs": 8296,
      "ç»¼åĲĪèĢĥèĻĳ": 8297,
      "Ġafter": 8298,
      "é¸ŁåĦ¿": 8299,
      "CE": 8300,
      "è¡Įç¨ĭ": 8301,
      "æľīäºº": 8302,
      "åºĶçĶ¨åľºæĻ¯": 8303,
      "æľºåĻ¨äººçļĦ": 8304,
      "éĢļå¸¸éľĢè¦ģ": 8305,
      "çļĦçŁŃæĸĩ": 8306,
      "rev": 8307,
      "ä¹Łè®¸": 8308,
      "ä¸»è¦ģæĺ¯": 8309,
      "æĪĳä¼ļå°½åĬĽ": 8310,
      "iPhone": 8311,
      "éĢĤçĶ¨": 8312,
      "åĲ¯åĬ¨": 8313,
      "Ġob": 8314,
      "åĴĮæ´»åĬ¨": 8315,
      "ä½łçŁ¥éģĵ": 8316,
      "æ¶ĪåĮĸ": 8317,
      "è´«åĽ°": 8318,
      "æĪĲä¸Ģä¸ª": 8319,
      "å°ıå¿ĥ": 8320,
      "Ġmost": 8321,
      "ä¸Ģå®ļè¦ģ": 8322,
      "èĪį": 8323,
      "åŃĹæ¯įé¡ºåºı": 8324,
      "çļĦåı£æĦŁ": 8325,
      "âĢĿï¼Ī": 8326,
      "å¤ĸå¥Ĺ": 8327,
      "è¢«èªīä¸º": 8328,
      "ç»Ĩèħ»": 8329,
      "æ²»çĸĹæĸ¹æ¡Ī": 8330,
      "çļĦçģ«": 8331,
      "æ³°åĿ¦": 8332,
      "xx": 8333,
      "çļĦæįŁ": 8334,
      "åĨ¬å¤©": 8335,
      "èĥĸ": 8336,
      "Ġåĩıå°ĳ": 8337,
      "çļĦæľĢä½³": 8338,
      "æģ°": 8339,
      "åĲĳæĪĳ": 8340,
      "Wh": 8341,
      "ä¸įåºĶè¯¥": 8342,
      "ale": 8343,
      "çĽ¸éģĩ": 8344,
      "åĮħæĭ¬ä½Ĩä¸įéĻĲäºİ": 8345,
      "Ġget": 8346,
      "ç²¾å½©": 8347,
      "åĤ¨åŃĺ": 8348,
      "å«Įçĸĳäºº": 8349,
      "åı¯ä»¥è¿½æº¯åĪ°": 8350,
      "çļĦçı": 8351,
      "ä¸İä»ĸäºº": 8352,
      "æĸĩç«łä¸ŃçļĦ": 8353,
      "åĪĿå§ĭ": 8354,
      "å¯»æ±Ĥä¸ĵä¸ļ": 8355,
      "åŀĭåı·": 8356,
      "æ¨¡åĿĹ": 8357,
      "åħ¶ä¸Ńä¸ĢäºĽ": 8358,
      "äºĨä¸Ģç³»åĪĹ": 8359,
      "çļĦç¬¬ä¸Ģä¸ª": 8360,
      "sp": 8361,
      "æĢĴ": 8362,
      "éĩįè¦ģæĢ§": 8363,
      "åħ±é¸£": 8364,
      "å¹³æĸ¹ç±³": 8365,
      "çļĦçĤ¹": 8366,
      "ĠçĶ¨": 8367,
      "çŃīå¼ı": 8368,
      "æ¯Ķçī¹": 8369,
      "éĢļå¸¸çĶ¨äºİ": 8370,
      "utes": 8371,
      "Emma": 8372,
      "tr": 8373,
      "è¿Ļåı¯ä»¥": 8374,
      "äº§åĵģæĪĸæľįåĬ¡": 8375,
      "æĦŁæĥħ": 8376,
      "æľªæĿ¥çļĦåıĳå±ķ": 8377,
      "ãģ¾": 8378,
      "é¢Ħå¤ĦçĲĨ": 8379,
      "ĠæıĲé«ĺ": 8380,
      "å®´": 8381,
      "é«ĺéĢŁ": 8382,
      "å·²ç»ıå¼Ģå§ĭ": 8383,
      "ç©ºæ°Ķä¸Ń": 8384,
      "åį·ç§¯": 8385,
      "Mary": 8386,
      "èĥ½å¤ł": 8387,
      "ä¼ŀ": 8388,
      "Ġart": 8389,
      "ç¢°": 8390,
      "ä½ĽæķĻ": 8391,
      "æŀļ": 8392,
      "æĿ¥é¢Ħæµĭ": 8393,
      "èĩªè½¬": 8394,
      "æł¹æį®é¢ĺçĽ®": 8395,
      "çīĽé¡¿": 8396,
      "Ġprint": 8397,
      "Ġend": 8398,
      "è¿Ļç¯ĩæĸĩç«łä¸Ń": 8399,
      "æĩĪ": 8400,
      "æ²īæµ¸": 8401,
      "çļĦæĶ¯æĮģåĴĮ": 8402,
      "åıįæĺłäºĨ": 8403,
      "fl": 8404,
      "éĢĿ": 8405,
      "æķ°çĻ¾": 8406,
      "å·¥åİĤ": 8407,
      "è®©è®¡ç®Ĺæľº": 8408,
      "çĶŁæĪĲçļĦ": 8409,
      "èħĶ": 8410,
      "Ġsection": 8411,
      "ä¸ĢèĪ¬æĿ¥è¯´": 8412,
      "Ġï¼Ī": 8413,
      "çļĦç¾İæĻ¯": 8414,
      "ÏĢ": 8415,
      "ä¸ŃéĹ´": 8416,
      "åħ³èģĶ": 8417,
      "è¾ĥå¤§": 8418,
      "æıĲåĪ°çļĦ": 8419,
      "æ¯«åįĩ": 8420,
      "ìĿ": 8421,
      "ä¼ĺç¼ºçĤ¹": 8422,
      "Ġcap": 8423,
      "åĭº": 8424,
      "æĹħæ¸¸çĽ®çļĦåľ°": 8425,
      "åĽ°å¢ĥ": 8426,
      "å¤ļæł·åĮĸ": 8427,
      "è§Ĩéĩİ": 8428,
      "éĻįä½İæĪĲæľ¬": 8429,
      "iply": 8430,
      "æ±¤åĮĻ": 8431,
      "('": 8432,
      "åħļ": 8433,
      "èµł": 8434,
      "å¤©æĸĩåŃ¦": 8435,
      "arn": 8436,
      "Ġrec": 8437,
      "é¥®çĶ¨": 8438,
      "ä»¥åĲİ": 8439,
      "è¿Ļç»Ħ": 8440,
      "æıĲäº¤": 8441,
      "Ġside": 8442,
      "åį±æľº": 8443,
      "è®©å®ĥ": 8444,
      "ploy": 8445,
      "ç©ºæ°Ķæ±¡æŁĵ": 8446,
      "Ġperform": 8447,
      "åĴĮç»Ħç»ĩ": 8448,
      "èī²è°ĥ": 8449,
      "å§Ĳ": 8450,
      "ç©¿è¿ĩ": 8451,
      "ä»¥èİ·å¾Ĺ": 8452,
      "åĲĥäºĨ": 8453,
      "çĸ¾çĹħçļĦ": 8454,
      "èįīåİŁ": 8455,
      "è³ª": 8456,
      "æ¸¬": 8457,
      "åħ¬åħĥ": 8458,
      "åĪ©çİĩ": 8459,
      "é»Ħæ²¹": 8460,
      "ä»¥å®ŀçİ°": 8461,
      "åĲĪå¹¶": 8462,
      "alk": 8463,
      "èĤĮèĤ¤": 8464,
      "ä¸ļç»©": 8465,
      "åı¯ä»¥å¸®åĬ©ä¼ģä¸ļ": 8466,
      "æ²¡æľīä»»ä½ķ": 8467,
      "è®¾å¤ĩåĴĮ": 8468,
      "Ġright": 8469,
      "çıĬ": 8470,
      "çļĦå¤©æ°Ķé¢ĦæĬ¥": 8471,
      "çĺ¦": 8472,
      "éĢĹ": 8473,
      "ç©ºè°ĥ": 8474,
      "åĽ´ç»ķ": 8475,
      "Emily": 8476,
      "æĿ¥å®ĮæĪĲ": 8477,
      "å®¢è§Ĥ": 8478,
      "æıĴåħ¥": 8479,
      "Ġjumps": 8480,
      "åĪĽä½ľä¸Ģé¦ĸ": 8481,
      "æºª": 8482,
      "æ¨ª": 8483,
      "ç¨įçŃī": 8484,
      "ä¿¡å¿µ": 8485,
      "åıįä¹īè¯į": 8486,
      "è¿Ļç§įæĥħåĨµ": 8487,
      "çļĦç½ĳç»ľ": 8488,
      "å½ĵä»£": 8489,
      "æ©Ļèī²": 8490,
      "rid": 8491,
      "çļĦéĥ¨åĪĨ": 8492,
      "æ²ĥ": 8493,
      "éĢīæĭ©éĢĤåĲĪèĩªå·±çļĦ": 8494,
      "è¢«å¹¿æ³ĽåºĶçĶ¨äºİ": 8495,
      "ä¿ĿæĮģèº«ä½ĵåģ¥åº·": 8496,
      "Ġ45": 8497,
      "å¹²æĹ±": 8498,
      "Sub": 8499,
      "é£İèĥ½": 8500,
      "AIåĬ©æīĭ": 8501,
      "å¹¶éĩĩåıĸ": 8502,
      "æĪĲä¸ºä¸ĢåĲį": 8503,
      "Ġprocess": 8504,
      "çļĦæİ¨èįĲ": 8505,
      "å°¼åħĭåı·": 8506,
      "æľĢç»ĪçļĦ": 8507,
      "èģļç±»": 8508,
      "bin": 8509,
      "ä¸Ĭæľī": 8510,
      "ason": 8511,
      "Ġgive": 8512,
      "èĢģé¼ł": 8513,
      "åĨ³çŃĸæłĳ": 8514,
      "å®ĩå®ĻçļĦ": 8515,
      "æ¸©å®¤æ°Ķä½ĵæİĴæĶ¾": 8516,
      "åĳĢ": 8517,
      "Ġgu": 8518,
      "åģľè½¦": 8519,
      "çĽ¸ä¼¼åº¦": 8520,
      "Ġformula": 8521,
      "©ç½ļ": 8522,
      "è¢«çĶ¨äºİ": 8523,
      "Mike": 8524,
      "Ġë": 8525,
      "åĬĽåº¦": 8526,
      "æĽ´åĬłæĻºèĥ½åĮĸ": 8527,
      "èĮ«": 8528,
      "çłĶç©¶åĴĮ": 8529,
      "å¦ĤæŀľæĤ¨æĥ³": 8530,
      "Ġtrue": 8531,
      "çļĦçº¢": 8532,
      "ä¸¢": 8533,
      "ä»¥åīį": 8534,
      "åŁİåł¡": 8535,
      "ron": 8536,
      "çĲĨçĶ±": 8537,
      "æĤ¨æıĲä¾Ľ": 8538,
      "ä¹Łè¦ģ": 8539,
      "åĽ¾è¡¨": 8540,
      "çļĦä½ľåĵģ": 8541,
      "ä¸įèµ·": 8542,
      "Ġwater": 8543,
      "ä¸įåĲĮç±»åŀĭçļĦ": 8544,
      "ç¢§": 8545,
      "çļĦäººçī©": 8546,
      "è¯¥å¦Ĥä½ķ": 8547,
      "å®īåħ¨çļĦ": 8548,
      "æ¢ģ": 8549,
      "çİĭæĺŁ": 8550,
      "æ¤įçī©çļĦ": 8551,
      "æĸĻéħĴ": 8552,
      "èĭ±éĩĮ": 8553,
      "ç¹ģæ®ĸ": 8554,
      "è¥¿çıŃçīĻè¯Ń": 8555,
      "Con": 8556,
      "ç¾İè§Ĥ": 8557,
      "Ġlength": 8558,
      "è¿ĲåĬ¨åĳĺ": 8559,
      "æ³°åĿ¦å°¼åħĭåı·": 8560,
      "ense": 8561,
      "çľĭæ³ķ": 8562,
      "èĦĬ": 8563,
      "åģ¥èº«æĪ¿": 8564,
      "å¼ķèµ·äºĨ": 8565,
      "çļĦä¹¦": 8566,
      "åľ¨ä¸įåĲĮçļĦ": 8567,
      "çļĦä¸»è¦ģåĨħå®¹": 8568,
      "å¦Ĥä»Ĭ": 8569,
      "éĥ½æľīçĿĢ": 8570,
      "è¿Ļé¦ĸè¯Ĺ": 8571,
      "ä¸ĵä¸ļçŁ¥è¯Ĩ": 8572,
      "çļĦåľºæĻ¯": 8573,
      "è¯·å°Ĩ": 8574,
      "Cl": 8575,
      "å¤·": 8576,
      "å¤§åĨĻ": 8577,
      "éĥ½éĿŀå¸¸": 8578,
      "åīįè¿Ľ": 8579,
      "çĶŁæ´»ä¸ŃçļĦ": 8580,
      "ç§ģäºº": 8581,
      "gram": 8582,
      "åĴĮæĸ¹æ³ķ": 8583,
      "åķĨå®¶": 8584,
      "olve": 8585,
      "çī¹åĪ«æĺ¯åľ¨": 8586,
      "å°Ĩä»¥ä¸ĭåı¥åŃĲ": 8587,
      "ç¨³å®ļçļĦ": 8588,
      "å¿į": 8589,
      "åĩıå°ĳæ±¡æŁĵ": 8590,
      "åĩłä½ķ": 8591,
      "éĶĻè¿ĩ": 8592,
      "èª¿": 8593,
      "ather": 8594,
      "æĤ¨åı¯ä»¥å°Ŀè¯ķ": 8595,
      "cho": 8596,
      "çĵ·": 8597,
      "ä¸įå¥½": 8598,
      "Ġaverage": 8599,
      "éľĢè¦ģæĽ´å¤ļçļĦ": 8600,
      "æĶ¯æĴĳ": 8601,
      "ä¾Ŀæį®": 8602,
      "éľĢè¦ģå¯¹": 8603,
      "éĵľ": 8604,
      "åĨ·åį´": 8605,
      "çļĦè§ĤçĤ¹": 8606,
      "è¡¨è¿°": 8607,
      "åĲĦç§įåĲĦ": 8608,
      "åıĳçİ°èĩªå·±": 8609,
      "æŃ¤æĹ¶": 8610,
      "é¦ĻæĸĻ": 8611,
      "æħ°": 8612,
      "An": 8613,
      "å¼ıåĴĮ": 8614,
      "å·²ç»ıæĪĲä¸ºäºĨ": 8615,
      "åįĵè¶Ĭ": 8616,
      "My": 8617,
      "åĴĮåıįé¦Ī": 8618,
      "Ġlanguage": 8619,
      "éĩįè¦ģçļĦè§Ĵèī²": 8620,
      "è¡¨è¾¾èĩªå·±": 8621,
      "æ³ķå¾ĭæ³ķè§Ħ": 8622,
      "çĿ¡è§ī": 8623,
      "ï¼Į`": 8624,
      "ç¿ł": 8625,
      "çĹħæĥħ": 8626,
      "å®ŀéªĮå®¤": 8627,
      "æī«æıı": 8628,
      "éĹ¹": 8629,
      "æ¯Ķåĸ»": 8630,
      "Ġloc": 8631,
      "ä¸Ģæ®µæĸĩæľ¬": 8632,
      "ferent": 8633,
      "äº§çĶŁäºĨæ·±è¿ľçļĦå½±åĵį": 8634,
      "æ¨£": 8635,
      "åħĭæĸ¯": 8636,
      "æŃ£åľ¨å¯»æī¾": 8637,
      "è¿½è¸ª": 8638,
      "è¿ĺæľīåĵªäºĽ": 8639,
      "Given": 8640,
      "å¸Ĥåľºè¶ĭåĬ¿": 8641,
      "AT": 8642,
      "çĶŁæĢģå¹³è¡¡": 8643,
      "æ²Ļæ¼ł": 8644,
      "çļĦæµ·æ´ĭ": 8645,
      "Ġhad": 8646,
      "åĴĮè°ĥæķ´": 8647,
      "åŃķ": 8648,
      "åŃĺåľ¨çĿĢ": 8649,
      "://": 8650,
      "è¯ŀ": 8651,
      "çĽ®æłĩæĺ¯": 8652,
      "å¾ĴæŃ¥": 8653,
      "å¼¥": 8654,
      "åºŁçī©": 8655,
      "no": 8656,
      "ä»İæĸĩç«łä¸ŃæıĲåıĸåĩº": 8657,
      "800": 8658,
      "åĪ°æĿ¥": 8659,
      "æĶ¹åĨĻ": 8660,
      "è³½": 8661,
      "çļĦæĸ¹åĲĳ": 8662,
      "æĿī": 8663,
      "äºĽä»Ģä¹Ī": 8664,
      "åŁºäºİä»¥ä¸Ĭ": 8665,
      "ä¹ĺç§¯": 8666,
      "å¤ĩä»½": 8667,
      "çļĦç¢": 8668,
      "ÙĪ": 8669,
      "è§Ģ": 8670,
      "å°ıéķĩ": 8671,
      "è¿Ľè¡ĮåĪĨæŀĲ": 8672,
      "èŃĺ": 8673,
      "çŁ³å¤´": 8674,
      "ä¸įå¿ħè¦ģçļĦ": 8675,
      "ä½łåĸľæ¬¢": 8676,
      "Ġmax": 8677,
      "å¤įåĪ¶": 8678,
      "ä½¿åħ¶æĽ´åĬł": 8679,
      "AN": 8680,
      "ç¿©": 8681,
      "åĲ¬èµ·æĿ¥ä¸įéĶĻ": 8682,
      "çļĦæĦıå¤§åĪ©": 8683,
      "down": 8684,
      "à¯": 8685,
      "çļĦè®¡åĪĴ": 8686,
      "åĴĮè¯Ħä¼°": 8687,
      "æĸ¯çī¹": 8688,
      "éĢĻåĢĭ": 8689,
      "çļĦå¹³æĸ¹": 8690,
      "æĪĳåı¯ä»¥ä¸ºæĤ¨": 8691,
      "åĴĮèĥ½åĬĽ": 8692,
      "æĽ´å¤§": 8693,
      "Ġsign": 8694,
      "é©Ĺ": 8695,
      "åľ¨è¿Ļä¸ªä¾ĭåŃĲä¸Ń": 8696,
      "çļĦåŃ¦çĶŁ": 8697,
      "Ġwere": 8698,
      "å¡ĳéĢł": 8699,
      "ized": 8700,
      "Ġimp": 8701,
      "æł¹æį®ä»¥ä¸Ĭ": 8702,
      "çº¢èī²çļĦ": 8703,
      "éĺ²æĻĴ": 8704,
      "è¾¹ç¼ĺ": 8705,
      "åľ¨åŃ¦ä¹ł": 8706,
      "ĠUn": 8707,
      "_{": 8708,
      "åı¯ä»¥éĩĩåıĸ": 8709,
      "ä¸ĭè½½": 8710,
      "âĢĵ": 8711,
      "Ġread": 8712,
      "ç¢Ĺä¸Ń": 8713,
      "äº¤åıī": 8714,
      "è®¤è¯ģ": 8715,
      "å¯¹çİ¯å¢ĥçļĦå½±åĵį": 8716,
      "ç«Ł": 8717,
      "å¾Īæ£Ĵ": 8718,
      "ç¬¬åĽĽ": 8719,
      "åį¡è·¯": 8720,
      "æķĳæı´": 8721,
      "åĬłå¿«": 8722,
      "å¢ŀåĬłäºĨ": 8723,
      "ertain": 8724,
      "æľºåľº": 8725,
      "èŃ¦æĸ¹": 8726,
      "çĶŁæľº": 8727,
      "Ġ\\,": 8728,
      "æļĹç¤º": 8729,
      "æıĲé«ĺå·¥ä½ľæķĪçİĩ": 8730,
      "åĸľåī§": 8731,
      "æĲºå¸¦": 8732,
      "åĿ¡": 8733,
      "æĤ¨åı¯ä»¥éĢīæĭ©": 8734,
      "éĢīé¡¹ä¸Ń": 8735,
      "çļĦæĶ¿çŃĸ": 8736,
      "])": 8737,
      "åľ¨éĢīæĭ©": 8738,
      "è¿Ļå®¶é¤Ĳåİħ": 8739,
      "åĲĲ": 8740,
      "è¿Ļä¹Łæĺ¯": 8741,
      "åĩłä¹İ": 8742,
      "é¥®é£ŁåĴĮ": 8743,
      "é»Ħéĩĳ": 8744,
      "æĪĳæİ¨èįĲ": 8745,
      "åıĳè¡¨": 8746,
      "çļĦçĳ": 8747,
      "éĿ¢æĸĻ": 8748,
      "éģ®": 8749,
      "ä»Ģä¹Īæł·çļĦ": 8750,
      "æĸĩåĮĸéģĹäº§": 8751,
      "ĠWe": 8752,
      "ä½İç¢³": 8753,
      "æĳĦå½±": 8754,
      "ç»ıåħ¸çļĦ": 8755,
      "$,": 8756,
      "èĤ¢": 8757,
      "éļª": 8758,
      "Ġterms": 8759,
      "åĴĮæĻºèĥ½": 8760,
      "æ³ķéĻ¢": 8761,
      "åľ¨æķĻèĤ²": 8762,
      "èµİ": 8763,
      "è½¬åŀĭ": 8764,
      "vert": 8765,
      "ç¤¾äº¤åªĴä½ĵå¹³åı°": 8766,
      "å¸ĿåĽ½": 8767,
      "çļĦæľīæķĪ": 8768,
      "æĮº": 8769,
      "å¤§æĪĺ": 8770,
      "çİ°çĬ¶": 8771,
      "raph": 8772,
      "éĿ¢åĲĳ": 8773,
      "ä»¥ä¸ĭæĺ¯åĩłä¸ª": 8774,
      "è¿ĳæľŁ": 8775,
      "åĴĮé«ĺæķĪ": 8776,
      "æĺ¯å°Ĩ": 8777,
      "æº¢": 8778,
      "èĬĤçº¦èĥ½æºĲ": 8779,
      "åĴĮäº¤æµģ": 8780,
      "åı¯çĶ¨": 8781,
      "è¯¯è§£": 8782,
      "oss": 8783,
      "æī®æ¼ĶçĿĢ": 8784,
      "æĺĨèĻ«": 8785,
      ")ï¼Į": 8786,
      "ĠJohn": 8787,
      "è¿Ļä¸¤": 8788,
      "å¦¥": 8789,
      "åĩºéĹ¨": 8790,
      "çļĦä½ĵéªĮ": 8791,
      "èµ¶": 8792,
      "éĴ»": 8793,
      "ãģ«": 8794,
      "åı¤è¯Ĺ": 8795,
      "æī¾åĪ°ä¸Ģä¸ª": 8796,
      "çļĦæł¹": 8797,
      "åħ¨çĲĥæ°ĶåĢĻåıĺåĮĸ": 8798,
      "æĮīæĹ¶": 8799,
      "æĤ²ä¼¤": 8800,
      "ergy": 8801,
      "DP": 8802,
      "ä¸Ģåº§": 8803,
      "æĤ¨åı¯ä»¥éĢļè¿ĩ": 8804,
      "ision": 8805,
      "alse": 8806,
      "åŃĹçļĦ": 8807,
      "è·Į": 8808,
      "å½¢æĪĲäºĨ": 8809,
      "æł¹æį®æıĲä¾Ľ": 8810,
      "æłĳåı¶": 8811,
      "å¦ĤæŀľéľĢè¦ģ": 8812,
      "ä¹ĺå®¢": 8813,
      "å£®è§Ĥ": 8814,
      "Ðº": 8815,
      "æĬ¤çĲĨ": 8816,
      "å¹¶ä¸Ķåľ¨": 8817,
      "è¡¨ç¤ºä¸º": 8818,
      "åħ¬åĽŃéĩĮ": 8819,
      "å¤§éĥ¨åĪĨ": 8820,
      "çĶŁæ´»è´¨éĩı": 8821,
      "æ³¨æĦıäºĭé¡¹": 8822,
      "é¤Ĳåħ·": 8823,
      "çģ¯åħī": 8824,
      "æĻ´æľĹ": 8825,
      "çļĦç¿»": 8826,
      "æĪĳä»¬å·²ç»ı": 8827,
      "å¿ĥè¡Ģç®¡": 8828,
      "éģ¿åħįè¿ĩåº¦": 8829,
      "åħ¶ä¸Ńä¸Ģä¸ª": 8830,
      "è¿Ļæł·æĪĳ": 8831,
      "Ġdetails": 8832,
      "åħ¨æĸ°çļĦ": 8833,
      "å·¥ä½ľåĴĮ": 8834,
      "åıĤä¸İèĢħ": 8835,
      "ç·´": 8836,
      "è¿Ńä»£": 8837,
      "ever": 8838,
      "éħįæĸ¹": 8839,
      "æ¯ıä¸ªäººéĥ½æľī": 8840,
      "åı¯èĥ½åŃĺåľ¨": 8841,
      "As": 8842,
      "gg": 8843,
      "æ¯įäº²": 8844,
      "æĬ½åıĸ": 8845,
      "ä½ľåĩº": 8846,
      "å®ŀä¹ł": 8847,
      "éļĨ": 8848,
      "è¥¿åħ°": 8849,
      "çī¹æ®ĬçļĦ": 8850,
      "ness": 8851,
      "æļ´åĬĽ": 8852,
      "ech": 8853,
      "æĿĥéĻĲ": 8854,
      "Ø§ÙĦ": 8855,
      "çĶŁæ¶¯": 8856,
      "åİ¿": 8857,
      "ä¸¤ä¸ªæķ´æķ°": 8858,
      "äº¤éĢļæĭ¥åłµ": 8859,
      "ä»»æĦı": 8860,
      "max": 8861,
      "ãģ§": 8862,
      "çļĦæİ¨ç§»": 8863,
      "çļĦä¿ĿæĬ¤": 8864,
      "è¾©": 8865,
      "çłĶç©¶äººåĳĺ": 8866,
      "ä¾ĿçĦ¶": 8867,
      "çĹĽèĭ¦": 8868,
      "à¶": 8869,
      "ï¼ļ$": 8870,
      "å¸ķ": 8871,
      "Ġcent": 8872,
      "Ġcould": 8873,
      "äººå·¥æĻºèĥ½åı¯ä»¥éĢļè¿ĩ": 8874,
      "æ»¥": 8875,
      "çĽĪåĪ©": 8876,
      "åĲİæĿ¥": 8877,
      "å¤ªå¥½äºĨ": 8878,
      "ique": 8879,
      "èĻ¹": 8880,
      "è®¸å¤ļé¢ĨåŁŁ": 8881,
      "ainst": 8882,
      "pen": 8883,
      "è¡¨æĥħ": 8884,
      "é£İåĳ³": 8885,
      "ç¼ĵæħ¢": 8886,
      "èĢĮéĹ»åĲį": 8887,
      "åĲ¬ä¼Ĺ": 8888,
      "åĴĮæİ§åĪ¶": 8889,
      "ality": 8890,
      "èħĮ": 8891,
      "hed": 8892,
      "è¿ĩæķı": 8893,
      "ream": 8894,
      "å¯Ħ": 8895,
      "ä¸įæĩĪ": 8896,
      "ä¹ĭåĴĮ": 8897,
      "atch": 8898,
      "Ġflo": 8899,
      "ä¸įä»ħåı¯ä»¥": 8900,
      "è¯ĬæĸŃçĸ¾çĹħ": 8901,
      "æĻĭ": 8902,
      "ä¾ĭå¦Ĥåľ¨": 8903,
      "ç»©æķĪ": 8904,
      "æĦŁåĨĴ": 8905,
      "è¿Ļä¸ªè¿ĩç¨ĭ": 8906,
      "åĭĩæ°ĶåĴĮ": 8907,
      "å¥½å¥½": 8908,
      "å®¢æĪ¶": 8909,
      "èıľè°±": 8910,
      "çļĦæİ§": 8911,
      "ä¾ĽåºĶåķĨ": 8912,
      "ç²¾åº¦": 8913,
      "çļĦç´§": 8914,
      "è¯ĨåĪ«åĩº": 8915,
      "å¿ĥçĲĨåĴ¨è¯¢": 8916,
      "èĥ¸èĤī": 8917,
      "è¦ģçĤ¹": 8918,
      "ä¸įåĲĮç±»åŀĭ": 8919,
      "ç¿»è¯ĳæĪĲæ³ķè¯Ń": 8920,
      "è©²": 8921,
      "çļĦçģµæĦŁ": 8922,
      "è¿ĻäºĽæİªæĸ½": 8923,
      "éħ·": 8924,
      "çĶŁæ´»åľ¨": 8925,
      "äº¤éĢļå·¥åħ·": 8926,
      "èĵĿèī²çļĦ": 8927,
      "åĩĢåĮĸ": 8928,
      "æĸĲ": 8929,
      "èĪªçıŃ": 8930,
      "random": 8931,
      "è¿ĺæ²¡æľī": 8932,
      "å®¹éĩı": 8933,
      "è¶ĬæĿ¥è¶Ĭå¹¿æ³Ľ": 8934,
      "Ġè¾ĵåĩº": 8935,
      "éĿ¢çļĦ": 8936,
      "æĺŁéĻħ": 8937,
      "æīĵçł´": 8938,
      "èŀº": 8939,
      "ä»ĵ": 8940,
      "å°ĬéĩįåĴĮ": 8941,
      "æ··åĲĪçī©": 8942,
      "ology": 8943,
      "è¡¨ä¸Ń": 8944,
      "èĩªå·±åĴĮ": 8945,
      "åıĳå±ķçļĦ": 8946,
      "æĢĿè·¯": 8947,
      "åĸľæ¬¢åĲĥ": 8948,
      "åĩĨç¡®çİĩ": 8949,
      "é»Ħçĵľ": 8950,
      "æĭŁåĲĪ": 8951,
      "çļĦæ±½": 8952,
      "æĽ´å¿«éĢŁ": 8953,
      "hello": 8954,
      "ä½łåı¯ä»¥åľ¨": 8955,
      "è·ŁæĪĳ": 8956,
      "Ġcalculate": 8957,
      "æ³¨åĨĮ": 8958,
      "åĽ¢éĺŁçļĦ": 8959,
      "åĵģçīĮå½¢è±¡": 8960,
      "è¿½éĢĲ": 8961,
      "ä»ĩ": 8962,
      "å°ıçĲĥ": 8963,
      "è¿ľç¦»": 8964,
      "å°Ĩè¿ĻäºĽ": 8965,
      "è¯·çĶ¨": 8966,
      "ä¹ĭä¸Ģæĺ¯": 8967,
      "çĶŁäº§åĬĽ": 8968,
      "æĬĺæī£": 8969,
      "å®ı": 8970,
      "å¥ĩæĢª": 8971,
      "çļĦçĸ¾çĹħ": 8972,
      "å¿ĥèĦıçĹħ": 8973,
      "æģĲé¾Ļ": 8974,
      ",\"": 8975,
      "`ãĢĤ": 8976,
      "è®©çĶ¨æĪ·": 8977,
      "æĪĳä»¬åı¯ä»¥ä»İ": 8978,
      "ä¸¥éĩįçļĦ": 8979,
      "è§Ĩè§īæķĪæŀľ": 8980,
      "ç¶²": 8981,
      "ä¸ºä»¥ä¸ĭ": 8982,
      "æĭĨ": 8983,
      "ä¸¤ä¸ªåı¥åŃĲ": 8984,
      "é¦ĸåħĪéľĢè¦ģ": 8985,
      "è®Ńç»ĥæ¨¡åŀĭ": 8986,
      "çĥ¤åĪ¶": 8987,
      "å¿½çķ¥": 8988,
      "å½±åĵįäºĨ": 8989,
      "å®ĮæĪĲäºĨ": 8990,
[...]
